#include "model.h"

const unsigned char intonly_quant_tflite_model[] = {
  0x20, 0x00, 0x00, 0x00, 0x54, 0x46, 0x4c, 0x33, 0x00, 0x00, 0x00, 0x00,
  0x14, 0x00, 0x20, 0x00, 0x1c, 0x00, 0x18, 0x00, 0x14, 0x00, 0x10, 0x00,
  0x0c, 0x00, 0x00, 0x00, 0x08, 0x00, 0x04, 0x00, 0x14, 0x00, 0x00, 0x00,
  0x1c, 0x00, 0x00, 0x00, 0x1c, 0x00, 0x00, 0x00, 0x4c, 0x00, 0x00, 0x00,
  0xa8, 0x2e, 0x00, 0x00, 0xb8, 0x2e, 0x00, 0x00, 0x2c, 0x46, 0x00, 0x00,
  0x03, 0x00, 0x00, 0x00, 0x00, 0x00, 0x00, 0x00, 0x01, 0x00, 0x00, 0x00,
  0x0c, 0x00, 0x00, 0x00, 0x08, 0x00, 0x0c, 0x00, 0x08, 0x00, 0x04, 0x00,
  0x08, 0x00, 0x00, 0x00, 0x1f, 0x00, 0x00, 0x00, 0x04, 0x00, 0x00, 0x00,
  0x13, 0x00, 0x00, 0x00, 0x6d, 0x69, 0x6e, 0x5f, 0x72, 0x75, 0x6e, 0x74,
  0x69, 0x6d, 0x65, 0x5f, 0x76, 0x65, 0x72, 0x73, 0x69, 0x6f, 0x6e, 0x00,
  0x20, 0x00, 0x00, 0x00, 0x58, 0x2e, 0x00, 0x00, 0x50, 0x2e, 0x00, 0x00,
  0x3c, 0x2e, 0x00, 0x00, 0x28, 0x2e, 0x00, 0x00, 0x14, 0x2e, 0x00, 0x00,
  0x00, 0x2e, 0x00, 0x00, 0xec, 0x2d, 0x00, 0x00, 0xd4, 0x2d, 0x00, 0x00,
  0x7c, 0x2d, 0x00, 0x00, 0x4c, 0x2d, 0x00, 0x00, 0xbc, 0x28, 0x00, 0x00,
  0x6c, 0x28, 0x00, 0x00, 0x5c, 0x16, 0x00, 0x00, 0xcc, 0x15, 0x00, 0x00,
  0xbc, 0x00, 0x00, 0x00, 0x9c, 0x00, 0x00, 0x00, 0x94, 0x00, 0x00, 0x00,
  0x8c, 0x00, 0x00, 0x00, 0x84, 0x00, 0x00, 0x00, 0x7c, 0x00, 0x00, 0x00,
  0x74, 0x00, 0x00, 0x00, 0x6c, 0x00, 0x00, 0x00, 0x64, 0x00, 0x00, 0x00,
  0x5c, 0x00, 0x00, 0x00, 0x54, 0x00, 0x00, 0x00, 0x4c, 0x00, 0x00, 0x00,
  0x44, 0x00, 0x00, 0x00, 0x3c, 0x00, 0x00, 0x00, 0x34, 0x00, 0x00, 0x00,
  0x2c, 0x00, 0x00, 0x00, 0x24, 0x00, 0x00, 0x00, 0x04, 0x00, 0x00, 0x00,
  0x16, 0xcf, 0xff, 0xff, 0x04, 0x00, 0x00, 0x00, 0x10, 0x00, 0x00, 0x00,
  0x31, 0x2e, 0x31, 0x34, 0x2e, 0x30, 0x00, 0x00, 0x00, 0x00, 0x00, 0x00,
  0x00, 0x00, 0x00, 0x00, 0x7c, 0xbb, 0xff, 0xff, 0x80, 0xbb, 0xff, 0xff,
  0x84, 0xbb, 0xff, 0xff, 0x88, 0xbb, 0xff, 0xff, 0x8c, 0xbb, 0xff, 0xff,
  0x90, 0xbb, 0xff, 0xff, 0x94, 0xbb, 0xff, 0xff, 0x98, 0xbb, 0xff, 0xff,
  0x9c, 0xbb, 0xff, 0xff, 0xa0, 0xbb, 0xff, 0xff, 0xa4, 0xbb, 0xff, 0xff,
  0xa8, 0xbb, 0xff, 0xff, 0xac, 0xbb, 0xff, 0xff, 0xb0, 0xbb, 0xff, 0xff,
  0xb4, 0xbb, 0xff, 0xff, 0x6e, 0xcf, 0xff, 0xff, 0x04, 0x00, 0x00, 0x00,
  0x10, 0x00, 0x00, 0x00, 0xae, 0xfe, 0xff, 0xff, 0xa0, 0x02, 0x00, 0x00,
  0x45, 0x00, 0x00, 0x00, 0xf7, 0xfe, 0xff, 0xff, 0x8a, 0xcf, 0xff, 0xff,
  0x04, 0x00, 0x00, 0x00, 0x00, 0x15, 0x00, 0x00, 0x03, 0x05, 0xf8, 0xf5,
  0x0a, 0xfe, 0x03, 0xfc, 0x01, 0xfb, 0x11, 0x03, 0xf1, 0x07, 0x07, 0xec,
  0xf6, 0x0c, 0xff, 0x08, 0x11, 0x04, 0x13, 0xef, 0xfe, 0xfe, 0x0d, 0xfd,
  0x07, 0xfa, 0xfe, 0x03, 0xf9, 0x00, 0x01, 0xe5, 0xf0, 0x11, 0xf9, 0x08,
  0xfc, 0x04, 0xee, 0x0f, 0x11, 0xff, 0x09, 0x0e, 0x06, 0xcf, 0xfc, 0xfa,
  0xf6, 0x0a, 0xfe, 0x04, 0xf9, 0xfe, 0xfe, 0xf6, 0xf6, 0x05, 0xf2, 0xf7,
  0x1c, 0x0c, 0xec, 0xf7, 0x14, 0xef, 0x1d, 0x05, 0x09, 0x0f, 0xb2, 0xfe,
  0xea, 0x1d, 0x05, 0xf7, 0x03, 0xea, 0x0f, 0xe9, 0x11, 0xf9, 0xf8, 0xfc,
  0x07, 0xf2, 0x19, 0x15, 0x11, 0x05, 0x04, 0xec, 0xfb, 0xff, 0xf1, 0xc8,
  0x00, 0xf8, 0xfa, 0xf2, 0x02, 0xfb, 0xd0, 0xe6, 0xe9, 0xef, 0xed, 0x09,
  0x04, 0xde, 0xf4, 0xde, 0xf8, 0xfd, 0x04, 0xeb, 0x06, 0xfb, 0x02, 0xf4,
  0xf5, 0xfa, 0xf2, 0xe3, 0x0d, 0xfc, 0xd8, 0xf8, 0xe4, 0xf4, 0xdf, 0xe0,
  0xfb, 0xf5, 0xc3, 0xf2, 0xe5, 0xf0, 0xf4, 0xf0, 0xf3, 0xfd, 0xe2, 0x14,
  0xe0, 0xea, 0xf3, 0xd7, 0xf7, 0xf4, 0x03, 0xe2, 0xe9, 0xee, 0xeb, 0xfc,
  0xe5, 0xe0, 0xf1, 0xef, 0xeb, 0xf3, 0x0a, 0xdc, 0xcd, 0xcd, 0xfc, 0xd4,
  0xf8, 0xf4, 0xd9, 0xef, 0xe5, 0xef, 0xf3, 0xf3, 0xfb, 0xf5, 0xe1, 0xf9,
  0xf7, 0x07, 0xda, 0xe4, 0xee, 0xea, 0xed, 0xf3, 0xf9, 0x00, 0x0c, 0x07,
  0x11, 0xef, 0xfa, 0xf9, 0x00, 0xf9, 0x05, 0xf8, 0xf9, 0x07, 0x08, 0x02,
  0x10, 0x06, 0x05, 0xfb, 0x0c, 0x08, 0xf6, 0xff, 0xf7, 0x08, 0x06, 0x08,
  0x08, 0xef, 0x0d, 0xff, 0x07, 0xfc, 0x0d, 0xda, 0x02, 0x0e, 0xfe, 0xfe,
  0xf3, 0x07, 0xff, 0x13, 0xf0, 0xf6, 0xfe, 0x18, 0x01, 0xd9, 0xf2, 0xeb,
  0x04, 0x00, 0xfb, 0x0f, 0xf7, 0xed, 0xf8, 0xfc, 0x06, 0x05, 0xf3, 0xf6,
  0x17, 0x1e, 0xfb, 0xe1, 0x14, 0xfd, 0x2b, 0x0b, 0x2d, 0x07, 0xdd, 0xf9,
  0xf9, 0x12, 0x34, 0xf7, 0x18, 0xf5, 0x0f, 0xeb, 0x17, 0x0e, 0x10, 0x11,
  0x0f, 0x07, 0x0c, 0x23, 0x11, 0x0f, 0x08, 0xea, 0xf8, 0x0a, 0xf3, 0xea,
  0xfc, 0xf2, 0x19, 0x14, 0x10, 0xf3, 0xd4, 0x0d, 0xd3, 0x09, 0x17, 0xf5,
  0xf9, 0xef, 0x08, 0xc9, 0xee, 0xf2, 0xef, 0xfd, 0xee, 0xe6, 0x04, 0xf5,
  0xf4, 0xe8, 0xeb, 0xf1, 0xf3, 0xfb, 0xd7, 0x02, 0xf9, 0xe2, 0xee, 0xe6,
  0xfa, 0x02, 0xd2, 0xfe, 0xe2, 0x02, 0xfb, 0xf7, 0xeb, 0x06, 0xf4, 0x07,
  0xe5, 0x00, 0xe5, 0xfc, 0xf1, 0xf2, 0xf3, 0xe4, 0xf0, 0xee, 0xdf, 0xf7,
  0x02, 0xd5, 0xe7, 0xea, 0xf6, 0xe3, 0xee, 0xe8, 0xf1, 0xec, 0xe6, 0xf0,
  0x00, 0x02, 0xe8, 0xef, 0xe3, 0xf0, 0xed, 0xf8, 0xf6, 0xe6, 0xe5, 0x01,
  0xeb, 0xe5, 0xe3, 0xee, 0xea, 0xda, 0xf1, 0xf3, 0x0e, 0x02, 0xf4, 0x0c,
  0x06, 0xf9, 0x02, 0x04, 0x04, 0x08, 0xfa, 0xf8, 0x02, 0x14, 0xfe, 0xfc,
  0xf7, 0x00, 0x01, 0xfd, 0x05, 0x01, 0x0d, 0xfb, 0x07, 0x0b, 0x0a, 0x08,
  0x0c, 0xfa, 0x0c, 0xf9, 0xef, 0xf1, 0x0d, 0xff, 0x05, 0xef, 0x10, 0x01,
  0x04, 0x11, 0xec, 0x04, 0x06, 0xfb, 0x01, 0x07, 0x0f, 0xef, 0x03, 0x07,
  0x00, 0x05, 0xf2, 0x02, 0x00, 0xf2, 0x01, 0x03, 0x0f, 0x05, 0xf3, 0xf1,
  0x1d, 0x10, 0xf8, 0xe6, 0xfc, 0x02, 0x0f, 0xf9, 0x10, 0x0c, 0xdc, 0x1c,
  0xed, 0x18, 0x11, 0x0e, 0x0e, 0xee, 0x0e, 0xec, 0x0f, 0x15, 0x09, 0x0b,
  0x16, 0xfd, 0x1f, 0x07, 0x28, 0x07, 0x08, 0xf1, 0xf3, 0x1c, 0xe5, 0xd8,
  0xfd, 0xfe, 0xf2, 0xf2, 0x09, 0xf7, 0xcd, 0x05, 0xe7, 0xfc, 0xf4, 0x02,
  0xf4, 0xd2, 0x13, 0xdc, 0xea, 0xfc, 0xef, 0xf3, 0xe8, 0xf1, 0xfa, 0xf9,
  0xee, 0xe8, 0xe6, 0xe3, 0xeb, 0xf2, 0xda, 0x02, 0x06, 0xe7, 0xf4, 0xdf,
  0xee, 0xfb, 0xdb, 0xf4, 0xe2, 0xf3, 0xf3, 0xf7, 0xfd, 0x12, 0xe3, 0x0c,
  0xfb, 0xe2, 0xf1, 0xe0, 0xea, 0xfd, 0x05, 0xf1, 0x06, 0xff, 0xde, 0xfc,
  0xed, 0xe4, 0xf2, 0xf4, 0xe9, 0xeb, 0xe8, 0xf1, 0xea, 0xf3, 0xec, 0xf2,
  0xe0, 0xe7, 0xe4, 0xea, 0xe9, 0x00, 0xe0, 0xee, 0xf5, 0xeb, 0xd4, 0xea,
  0xeb, 0xe5, 0xd2, 0xe2, 0xdd, 0xde, 0xed, 0xfd, 0xff, 0x04, 0xf9, 0xfb,
  0x04, 0xfe, 0x03, 0x05, 0x04, 0x00, 0x00, 0xf7, 0xf8, 0x05, 0xfa, 0x00,
  0x03, 0x0e, 0x04, 0xfa, 0xff, 0x0a, 0x04, 0xfd, 0xff, 0xfd, 0x09, 0x00,
  0x10, 0xfc, 0x09, 0xf5, 0x00, 0xff, 0x0a, 0xee, 0x0a, 0xf1, 0xeb, 0x04,
  0x00, 0x04, 0xfa, 0xff, 0xf9, 0xf4, 0x0c, 0x03, 0xf0, 0xec, 0x04, 0xe8,
  0x05, 0xfa, 0x04, 0x0f, 0x04, 0xfd, 0xfd, 0x04, 0xfb, 0xf3, 0xf5, 0xfb,
  0x1c, 0x0c, 0xf0, 0x0e, 0x01, 0x00, 0xee, 0x1b, 0x03, 0xf3, 0xda, 0xeb,
  0xfe, 0x09, 0x11, 0xfa, 0x0d, 0xd9, 0x06, 0xff, 0x12, 0x0b, 0x0d, 0x18,
  0x0e, 0xf5, 0x12, 0x10, 0x0e, 0x01, 0x14, 0xe7, 0xf2, 0x0f, 0x10, 0xda,
  0x0e, 0xec, 0xfc, 0x13, 0x0a, 0xf6, 0xe8, 0x05, 0xff, 0x0c, 0x01, 0x0c,
  0xef, 0xd5, 0x00, 0xd6, 0xf7, 0xf9, 0x08, 0xf5, 0xff, 0xed, 0x00, 0xfa,
  0xf0, 0x0b, 0xf8, 0xf0, 0xff, 0x0e, 0xe1, 0x04, 0xf7, 0xf2, 0xfc, 0xf6,
  0x19, 0x0b, 0xee, 0x0f, 0xd6, 0x1d, 0xf7, 0xf4, 0xf4, 0x09, 0xf7, 0x21,
  0xf9, 0x06, 0xfd, 0xd8, 0xff, 0xe7, 0xff, 0xe0, 0x09, 0xef, 0xee, 0x01,
  0xf3, 0xe0, 0xf3, 0xff, 0xf7, 0xd9, 0xf6, 0xf7, 0xfe, 0xd3, 0xec, 0xdc,
  0xdd, 0x06, 0xfa, 0xef, 0xed, 0xfe, 0xed, 0x05, 0xef, 0xf5, 0xe8, 0xfc,
  0xfa, 0xee, 0xe8, 0xe5, 0xe6, 0xe3, 0xf5, 0xef, 0xfa, 0x02, 0xf9, 0xfe,
  0x02, 0xf9, 0xe8, 0xfe, 0x04, 0xff, 0x09, 0x03, 0x03, 0x09, 0x02, 0xf8,
  0x0a, 0xfa, 0x0d, 0x01, 0x0c, 0x02, 0xff, 0x00, 0x01, 0x0b, 0x00, 0x00,
  0x0b, 0x0b, 0x04, 0x01, 0xfb, 0xff, 0x06, 0xef, 0xf6, 0xfb, 0x02, 0xff,
  0x02, 0xf9, 0x07, 0x12, 0x0d, 0xfc, 0xfe, 0x00, 0x00, 0xf0, 0x02, 0xe2,
  0xf6, 0x14, 0xff, 0x09, 0x09, 0xf9, 0xf7, 0x07, 0xfb, 0xf6, 0xf2, 0xf9,
  0x00, 0x16, 0x1e, 0xec, 0x1f, 0xee, 0xf3, 0xff, 0x00, 0x00, 0xf1, 0x0d,
  0xe0, 0x1a, 0xfa, 0xfa, 0xf2, 0xdd, 0x20, 0xd4, 0x04, 0x08, 0xf2, 0x12,
  0x0e, 0xec, 0x0a, 0xfe, 0x17, 0xf6, 0x13, 0xf9, 0x00, 0x00, 0x05, 0xe4,
  0x0d, 0x01, 0xf9, 0x0e, 0x03, 0xfc, 0xdb, 0x13, 0xf8, 0xee, 0x04, 0x21,
  0x0d, 0xda, 0x0a, 0xd0, 0xf7, 0x00, 0xf4, 0x26, 0xe8, 0xfa, 0x01, 0x05,
  0x06, 0x00, 0xfc, 0xef, 0xff, 0x12, 0xe7, 0xff, 0x03, 0xdf, 0xf4, 0xe8,
  0x18, 0x0a, 0xd7, 0x02, 0xd7, 0x1f, 0xfb, 0xf6, 0x16, 0x0a, 0xfc, 0xf2,
  0x01, 0x06, 0xfd, 0xe8, 0x09, 0xf6, 0x14, 0xfe, 0xf3, 0x0e, 0x00, 0xeb,
  0xf3, 0xe4, 0xfc, 0x00, 0xf0, 0xdc, 0xe7, 0xee, 0xe4, 0xd2, 0xf3, 0xee,
  0xe8, 0x1b, 0xfa, 0xe2, 0xf8, 0x00, 0xd8, 0x09, 0xee, 0x0a, 0xf0, 0xf2,
  0xff, 0xeb, 0xf8, 0xe0, 0xf8, 0xe1, 0xf8, 0xee, 0x0d, 0x06, 0xfd, 0xf9,
  0x07, 0x0d, 0xf3, 0x00, 0x0b, 0x00, 0x05, 0x0a, 0x12, 0x04, 0x09, 0xf3,
  0x0f, 0xfe, 0xf8, 0x08, 0x06, 0x08, 0xf1, 0x08, 0x0e, 0x09, 0x08, 0x0b,
  0x07, 0x00, 0x00, 0x08, 0x09, 0xfa, 0xf0, 0x03, 0xf6, 0x04, 0x0a, 0x07,
  0x05, 0x02, 0xf2, 0x02, 0xeb, 0x01, 0x07, 0x02, 0x02, 0xeb, 0x00, 0xe4,
  0x0a, 0xfb, 0x02, 0xf8, 0xf4, 0x0e, 0x00, 0x05, 0xfd, 0xf9, 0x01, 0xf5,
  0x1c, 0x0b, 0xe2, 0xf0, 0x04, 0xe6, 0xfa, 0x14, 0x1c, 0x05, 0xe0, 0xfa,
  0xe4, 0x1c, 0xf8, 0x0e, 0x06, 0xe7, 0x00, 0xe8, 0xf4, 0x15, 0x05, 0xfc,
  0xf8, 0xf7, 0x04, 0xfa, 0xf8, 0xfe, 0x05, 0xf4, 0xed, 0xfc, 0xfc, 0xeb,
  0x02, 0xee, 0x1f, 0x0c, 0xf1, 0xf5, 0xef, 0xfc, 0xe9, 0xe4, 0xf2, 0x0a,
  0xf1, 0xe5, 0x18, 0xf4, 0xf9, 0x00, 0xfb, 0x00, 0xfe, 0xe6, 0x00, 0x07,
  0xf2, 0xf1, 0xf4, 0xf9, 0x04, 0x11, 0xf9, 0xfa, 0xfc, 0xfb, 0x04, 0xf4,
  0x0d, 0x08, 0xdf, 0xf6, 0xdf, 0x1d, 0xf3, 0xf7, 0x06, 0x18, 0xf7, 0xf1,
  0xf4, 0x05, 0xe6, 0xfb, 0x07, 0xd8, 0xfb, 0xec, 0x0e, 0xf5, 0x01, 0xfa,
  0xfb, 0xe9, 0xf9, 0x0e, 0xf1, 0xe8, 0xf7, 0xf3, 0xe6, 0xea, 0x02, 0xe5,
  0xe1, 0xf5, 0xe7, 0xda, 0xe9, 0x01, 0xde, 0xeb, 0xf1, 0xd8, 0xf4, 0xfd,
  0xfc, 0xde, 0xec, 0xd3, 0xf1, 0xf5, 0xfb, 0xe8, 0xf7, 0x09, 0xff, 0x0a,
  0x0d, 0x00, 0xeb, 0xff, 0xfd, 0xfa, 0x15, 0xf1, 0x00, 0x05, 0x00, 0xf7,
  0xf6, 0x02, 0xf2, 0xf7, 0xff, 0x02, 0x02, 0xf9, 0x00, 0xe7, 0xf6, 0x08,
  0x04, 0x07, 0x0a, 0xfa, 0xe9, 0xfe, 0xf9, 0xf5, 0x01, 0x07, 0xf8, 0x02,
  0x05, 0x03, 0x0a, 0x0f, 0xe6, 0xef, 0xfc, 0xfd, 0x07, 0xdd, 0xf8, 0xdf,
  0xf3, 0xfe, 0x0d, 0x06, 0xfa, 0xdd, 0xf8, 0x0c, 0x13, 0xeb, 0x05, 0xf4,
  0x40, 0x06, 0xfa, 0xf0, 0xfd, 0xeb, 0x0f, 0xf5, 0x07, 0x01, 0x07, 0xf7,
  0xd1, 0x24, 0x2b, 0x05, 0xf4, 0xf5, 0x0a, 0xd5, 0x0c, 0x08, 0x0a, 0xf5,
  0x07, 0xe5, 0x17, 0x05, 0xf7, 0xea, 0x17, 0xf4, 0xf3, 0xe3, 0x0a, 0xeb,
  0xfb, 0xe3, 0x04, 0x07, 0xff, 0xeb, 0xf3, 0x07, 0xf0, 0x0f, 0x03, 0x0c,
  0xf9, 0xd1, 0x07, 0xd6, 0xda, 0xe6, 0xf4, 0x06, 0xf5, 0xf2, 0xfe, 0xf9,
  0x00, 0xe3, 0xf8, 0xe1, 0x03, 0x18, 0x02, 0xf8, 0x10, 0xf3, 0xf5, 0xe0,
  0x0f, 0xe8, 0xf7, 0xe7, 0xd8, 0x1c, 0xf9, 0xf4, 0xea, 0x08, 0xe2, 0xf5,
  0xf1, 0x06, 0xe8, 0xff, 0x11, 0xfb, 0x16, 0xf0, 0xf2, 0xe8, 0xf7, 0xef,
  0xe7, 0xcb, 0xf3, 0x00, 0xf1, 0xd1, 0xff, 0xdc, 0xd8, 0xdf, 0xf4, 0xce,
  0xed, 0xed, 0xeb, 0xfd, 0xde, 0xfe, 0xe9, 0xfb, 0xfb, 0xed, 0xfc, 0xf9,
  0xf2, 0xf3, 0xeb, 0xeb, 0xf2, 0xee, 0xee, 0xee, 0xf7, 0xff, 0xf2, 0x10,
  0x0e, 0x06, 0x03, 0xfd, 0x0d, 0x02, 0x0f, 0x09, 0xf5, 0x10, 0x05, 0x06,
  0x01, 0x0c, 0xf7, 0x07, 0x0d, 0x0e, 0x02, 0x04, 0x06, 0x0d, 0x0f, 0x11,
  0x0a, 0x07, 0x11, 0x0f, 0xe9, 0xec, 0xf2, 0xd7, 0xe9, 0xeb, 0xd9, 0xe9,
  0xe3, 0xea, 0xec, 0xea, 0xf7, 0xe7, 0xee, 0xea, 0xe4, 0xf9, 0xe6, 0xf5,
  0xde, 0xe2, 0xe7, 0xe7, 0x03, 0xef, 0xe8, 0xdf, 0xf5, 0xfa, 0xdb, 0xf8,
  0xd9, 0xce, 0xe3, 0x10, 0xd3, 0xf7, 0xba, 0xb6, 0xc9, 0xea, 0x2b, 0x94,
  0x03, 0xe5, 0xe5, 0xab, 0xaf, 0x3f, 0xb1, 0x21, 0xec, 0xea, 0xd6, 0xb2,
  0xfb, 0xf8, 0xe1, 0xcc, 0xe1, 0xed, 0xea, 0x24, 0xfb, 0x9e, 0x05, 0x15,
  0xe6, 0x0b, 0x98, 0xc8, 0xe4, 0xf2, 0x01, 0xc5, 0xf2, 0xa3, 0xc2, 0x90,
  0xb3, 0x32, 0xae, 0x14, 0xe8, 0xdc, 0xe6, 0xa9, 0xe4, 0xef, 0xed, 0xc9,
  0xca, 0xf6, 0xe7, 0x28, 0xf3, 0xd1, 0xef, 0xe6, 0xe7, 0xf5, 0xc7, 0xcc,
  0xc7, 0x01, 0x11, 0xee, 0x04, 0xe2, 0x02, 0xc2, 0xd6, 0x09, 0xd7, 0xd7,
  0xf0, 0xfa, 0x05, 0xe7, 0xef, 0xfd, 0xf5, 0xed, 0xf9, 0xe9, 0xee, 0x02,
  0xeb, 0x06, 0xf3, 0xe6, 0x00, 0x11, 0xfe, 0x0d, 0xe2, 0x0c, 0x0b, 0xf5,
  0x19, 0xec, 0xf3, 0x03, 0xea, 0xf0, 0x0d, 0xf1, 0xec, 0xf8, 0x01, 0x07,
  0xf6, 0x0a, 0xf8, 0xf6, 0xd9, 0xf8, 0xe7, 0x02, 0x07, 0xfd, 0x06, 0x04,
  0x09, 0xfc, 0x05, 0x06, 0xff, 0xff, 0x0b, 0x0a, 0x09, 0x09, 0x03, 0xf4,
  0x02, 0xfb, 0x0c, 0x08, 0x07, 0xff, 0x09, 0x01, 0xff, 0xf0, 0x02, 0x06,
  0xf8, 0xfe, 0x07, 0xfe, 0x0b, 0xfb, 0xda, 0xee, 0xf6, 0xee, 0xeb, 0xe5,
  0xf4, 0xf3, 0xd8, 0xfa, 0xf2, 0xf2, 0xec, 0xdf, 0xe5, 0xfe, 0xe6, 0x12,
  0xee, 0xf2, 0xf7, 0xec, 0xfa, 0x04, 0xfb, 0xf7, 0xf4, 0xe2, 0xf2, 0x02,
  0xde, 0xbe, 0xe4, 0x1f, 0xcf, 0xe1, 0xbe, 0xb7, 0xde, 0xec, 0x23, 0xa0,
  0x19, 0xfc, 0xc6, 0xaa, 0xb4, 0x4d, 0xd8, 0x28, 0xdb, 0xdd, 0xfb, 0xb2,
  0x06, 0x02, 0xfc, 0xd1, 0xda, 0xe6, 0xdd, 0x08, 0xf7, 0xa6, 0xf3, 0x1b,
  0xa9, 0xfd, 0xb8, 0x8e, 0xbb, 0x07, 0x0b, 0xa8, 0x12, 0x9c, 0xb7, 0xd0,
  0xd4, 0x01, 0xa6, 0x19, 0xce, 0xd4, 0xe3, 0xbd, 0xfe, 0x05, 0xd8, 0xf4,
  0xec, 0xff, 0xf8, 0x08, 0xfb, 0xc9, 0xfa, 0xfa, 0xe6, 0xf7, 0xe6, 0xfc,
  0xd7, 0x03, 0x17, 0xfb, 0xfd, 0xce, 0xd3, 0xed, 0xf9, 0xf5, 0xee, 0xe7,
  0xd6, 0xfc, 0xea, 0xce, 0xf3, 0x00, 0xf7, 0xfc, 0xeb, 0x07, 0xf4, 0xf3,
  0xed, 0x0b, 0xfa, 0xd9, 0xf7, 0x1b, 0x0e, 0x30, 0xe8, 0x09, 0x0f, 0x0c,
  0x0f, 0xd2, 0xf7, 0xf4, 0x00, 0xfb, 0x15, 0xfd, 0xf9, 0xfc, 0xff, 0x0d,
  0xf8, 0x17, 0x04, 0xee, 0xf2, 0x12, 0xf2, 0xff, 0x05, 0x00, 0xf7, 0x18,
  0x0b, 0x01, 0x06, 0xfa, 0x01, 0x0b, 0x04, 0x04, 0x0c, 0x09, 0x07, 0xfe,
  0x00, 0x14, 0xfe, 0x02, 0x16, 0x12, 0x01, 0x08, 0x00, 0x0c, 0x04, 0x01,
  0x08, 0xfa, 0x13, 0x00, 0xf7, 0xf7, 0xfd, 0xf0, 0xfc, 0xf6, 0xc9, 0xe8,
  0xe6, 0x00, 0xf8, 0xe2, 0x10, 0xee, 0xf7, 0xe2, 0xf6, 0x05, 0xfe, 0x0d,
  0xe6, 0xec, 0xf7, 0xe9, 0x09, 0x05, 0xe8, 0xf2, 0xf8, 0xfa, 0xe8, 0x03,
  0xe4, 0xcc, 0xdf, 0x1b, 0xf2, 0xf4, 0xd9, 0xa4, 0xfa, 0xf4, 0x32, 0xb1,
  0x10, 0xeb, 0xc4, 0xa5, 0xdd, 0x2c, 0xc1, 0x2f, 0xf0, 0xe0, 0xeb, 0xca,
  0xf7, 0x0c, 0xef, 0xd1, 0xd5, 0xf1, 0xef, 0x21, 0x01, 0x81, 0xe7, 0x25,
  0xd6, 0x0d, 0xb9, 0xc8, 0xdf, 0x0e, 0x23, 0x98, 0x16, 0xb9, 0xae, 0xb0,
  0xe5, 0x14, 0xd1, 0x0e, 0xea, 0xe1, 0xe6, 0xd6, 0xfd, 0x00, 0xe6, 0xec,
  0xea, 0xfb, 0xf7, 0x08, 0xff, 0xdb, 0x01, 0x07, 0xf3, 0x0e, 0xfb, 0x12,
  0xf4, 0x02, 0x02, 0xf8, 0xf9, 0xcb, 0xdd, 0xfb, 0xd6, 0x02, 0xf7, 0xfb,
  0xed, 0xea, 0xf7, 0xf2, 0x04, 0x03, 0xeb, 0xec, 0xf8, 0x07, 0x07, 0xf5,
  0xf7, 0x07, 0x09, 0xe6, 0xf1, 0x03, 0x0b, 0xf8, 0xf9, 0x07, 0xeb, 0x0b,
  0x22, 0xee, 0xf9, 0xf9, 0xfc, 0x06, 0x06, 0x0c, 0x09, 0x06, 0xf6, 0x01,
  0x05, 0x11, 0xf5, 0xfe, 0x00, 0xfc, 0x01, 0xfe, 0x08, 0x0a, 0xfc, 0x0a,
  0x0c, 0x08, 0x02, 0x16, 0xfe, 0x09, 0x0d, 0xf7, 0xfe, 0x14, 0x07, 0xfe,
  0x0b, 0x13, 0x07, 0x08, 0x0c, 0xfc, 0x01, 0x02, 0x18, 0x01, 0x10, 0xfe,
  0x09, 0x11, 0x07, 0x06, 0xe7, 0x01, 0xde, 0xf7, 0x03, 0x03, 0xf3, 0x03,
  0xf9, 0x07, 0xec, 0x06, 0x01, 0xe6, 0xfc, 0xfe, 0x0f, 0x0b, 0xff, 0x08,
  0x07, 0x01, 0xf6, 0xed, 0x00, 0xf3, 0xf0, 0xf4, 0xf9, 0xfd, 0xf3, 0x00,
  0x00, 0xe3, 0xfb, 0x17, 0xda, 0xdb, 0xba, 0xb4, 0xf3, 0xf4, 0x0c, 0xad,
  0x05, 0xfa, 0xdb, 0xdc, 0xe9, 0x37, 0xc8, 0x1b, 0x05, 0xfc, 0x08, 0xa5,
  0x0e, 0x04, 0x07, 0xdb, 0xfa, 0xfe, 0x09, 0x23, 0xf9, 0xb5, 0xf5, 0x1c,
  0xef, 0xff, 0xfd, 0xde, 0xdf, 0xf9, 0x12, 0xd5, 0x12, 0xb9, 0xd7, 0xdc,
  0xd6, 0x16, 0xc7, 0x0c, 0xeb, 0xe4, 0xe9, 0xd4, 0xe5, 0xfd, 0xdf, 0xd5,
  0xea, 0xf7, 0xef, 0x10, 0xfd, 0xf5, 0xf5, 0xfb, 0xd1, 0xfd, 0xf5, 0x0d,
  0xe8, 0xf3, 0x04, 0xf0, 0x00, 0xd7, 0xe5, 0xf5, 0xf6, 0xeb, 0xfe, 0xf6,
  0x02, 0x01, 0xef, 0xf4, 0xfb, 0x10, 0xe6, 0x00, 0x03, 0xf4, 0x02, 0x04,
  0xf7, 0x07, 0xf8, 0xfb, 0x01, 0x05, 0x05, 0x1f, 0xf2, 0x0a, 0xfc, 0x26,
  0x2e, 0xf8, 0xf9, 0x15, 0xfa, 0x02, 0x0a, 0xe8, 0x01, 0x02, 0x01, 0x0a,
  0x18, 0x16, 0xf4, 0xfd, 0xf7, 0xfe, 0xf9, 0x01, 0x03, 0x01, 0x0a, 0x0e,
  0x00, 0xfb, 0x09, 0xff, 0x11, 0xfd, 0x06, 0x06, 0x01, 0x0c, 0x0d, 0x15,
  0x05, 0x0b, 0xff, 0x06, 0x0f, 0x0b, 0x0b, 0x09, 0x02, 0x0a, 0x0e, 0x0f,
  0x0c, 0xfe, 0x0f, 0x06, 0xfc, 0x0e, 0x00, 0xf2, 0x05, 0x0b, 0xf1, 0x05,
  0xef, 0x10, 0xef, 0x19, 0xf7, 0xf3, 0xec, 0x0a, 0xef, 0x02, 0x0b, 0x16,
  0xf3, 0xfd, 0x16, 0xf8, 0xf4, 0x12, 0x03, 0xf6, 0xee, 0x01, 0x08, 0xfc,
  0x17, 0xee, 0xfd, 0x2a, 0xef, 0xeb, 0xd8, 0xc7, 0x10, 0xf4, 0x0e, 0xa3,
  0x28, 0xfe, 0xeb, 0xd1, 0xf0, 0x36, 0xd0, 0x1f, 0xf9, 0xfc, 0x02, 0xbc,
  0x09, 0x0d, 0xfb, 0xdd, 0xe9, 0xf2, 0xf2, 0x20, 0xf0, 0x87, 0xf6, 0x0c,
  0xd2, 0xfd, 0xd7, 0xb9, 0xc3, 0xfd, 0x28, 0xd2, 0x17, 0xba, 0xd7, 0xb9,
  0xe8, 0x2c, 0xd7, 0x0b, 0xe4, 0xf0, 0x07, 0xb8, 0xfb, 0x0f, 0xeb, 0xeb,
  0xf0, 0xfe, 0xf5, 0x18, 0xfe, 0xf1, 0x01, 0xf6, 0xdc, 0x0a, 0xe6, 0xed,
  0xf0, 0x04, 0x0c, 0xf5, 0x17, 0x02, 0xf4, 0xfd, 0x00, 0x0c, 0x06, 0xff,
  0xfe, 0x09, 0xfe, 0xff, 0xea, 0xfe, 0x04, 0xf0, 0xef, 0x00, 0x04, 0x0d,
  0xfe, 0xfe, 0xfe, 0xe1, 0x02, 0x01, 0x04, 0x11, 0xfd, 0x11, 0x01, 0x11,
  0x12, 0xf2, 0x1c, 0x06, 0xf8, 0x0d, 0x12, 0xf7, 0xf3, 0x0b, 0x02, 0x08,
  0x0d, 0x30, 0xfd, 0xf3, 0xfa, 0x00, 0xea, 0xf7, 0x0c, 0x01, 0x1b, 0x02,
  0xfe, 0xf7, 0xfb, 0x05, 0x0d, 0x09, 0x12, 0x0a, 0x07, 0x07, 0x05, 0x09,
  0x10, 0x00, 0x02, 0x02, 0x0f, 0xfe, 0x0d, 0x11, 0x01, 0x01, 0x09, 0x00,
  0x11, 0xf8, 0x0b, 0x0a, 0xf1, 0xfb, 0x0f, 0xf4, 0xfc, 0x0a, 0xfd, 0xff,
  0xfe, 0x0b, 0xff, 0x07, 0xf9, 0xec, 0xf9, 0x00, 0xf5, 0xf1, 0xfc, 0xf8,
  0xe5, 0x0a, 0xf1, 0xea, 0xfd, 0xed, 0x07, 0xfe, 0xf4, 0xfe, 0xef, 0xf6,
  0xec, 0xe7, 0xf1, 0x28, 0xef, 0xe7, 0xf8, 0xd7, 0xfe, 0xf1, 0x09, 0xc2,
  0x1f, 0x09, 0xd9, 0xd1, 0xea, 0x3b, 0xd3, 0x21, 0x08, 0xff, 0xf8, 0xcf,
  0x00, 0x15, 0x04, 0xf3, 0xde, 0x02, 0x09, 0x19, 0xef, 0xb8, 0xe2, 0x09,
  0xc7, 0xef, 0xd1, 0xbe, 0xf7, 0xf9, 0x15, 0xb7, 0xfa, 0xf0, 0xc9, 0xe3,
  0xeb, 0x0b, 0xce, 0x09, 0xfa, 0xed, 0xfc, 0xf7, 0xfe, 0x03, 0xdc, 0xf4,
  0xef, 0xf1, 0xdd, 0x02, 0xfc, 0xec, 0xf3, 0x05, 0x04, 0x0d, 0xfb, 0xfb,
  0xf9, 0xf9, 0x15, 0xf8, 0x22, 0xdf, 0xf6, 0xff, 0xfb, 0xea, 0xfc, 0xf3,
  0xf7, 0x03, 0x01, 0x04, 0xf8, 0x0d, 0xf6, 0xf0, 0xf5, 0x06, 0x01, 0xff,
  0xf8, 0x1b, 0xfb, 0xdf, 0x05, 0x00, 0xf0, 0x20, 0x00, 0x10, 0xf1, 0x0d,
  0x14, 0xfd, 0x03, 0xfb, 0xfc, 0xf7, 0x25, 0xe7, 0x05, 0xf5, 0xfe, 0x0b,
  0x03, 0x18, 0xfe, 0x0a, 0x05, 0x20, 0xf7, 0x04, 0x01, 0xff, 0x00, 0x09,
  0x05, 0x1b, 0x02, 0xf6, 0x08, 0xf2, 0x11, 0xf6, 0xf2, 0x0c, 0x03, 0xfa,
  0xfe, 0x03, 0x01, 0x03, 0x09, 0x09, 0x09, 0x0c, 0xfa, 0xf4, 0xfa, 0x00,
  0x0a, 0x26, 0x15, 0xfa, 0xe7, 0xeb, 0xcc, 0xf8, 0xea, 0xed, 0x11, 0xf4,
  0xff, 0x00, 0xf6, 0xef, 0x0a, 0x01, 0xfa, 0xda, 0xe9, 0x0a, 0xf6, 0xf9,
  0xea, 0xf9, 0xe5, 0xf4, 0x02, 0x0c, 0xf3, 0xe2, 0xe4, 0xe4, 0xe0, 0xf4,
  0xec, 0xcf, 0xf5, 0x23, 0xd1, 0xf1, 0xab, 0xef, 0xe1, 0xf5, 0xeb, 0xbc,
  0x29, 0xf0, 0xd9, 0xcf, 0xce, 0x1b, 0xad, 0x13, 0xf4, 0xf4, 0xe9, 0xd8,
  0xf2, 0x1d, 0xe3, 0xe3, 0xd9, 0x00, 0xf4, 0x0d, 0xff, 0xc2, 0xfc, 0xf3,
  0xd1, 0x12, 0xf6, 0xd4, 0xdf, 0x03, 0xfe, 0xb6, 0x0b, 0xad, 0xbb, 0xda,
  0xec, 0x11, 0xd5, 0x0f, 0xef, 0xff, 0xfe, 0xc2, 0xf0, 0x14, 0xf2, 0xf4,
  0xf2, 0x0c, 0xff, 0x04, 0xff, 0xf4, 0xfa, 0xe6, 0xe6, 0x0a, 0x02, 0x3e,
  0x09, 0x16, 0xf4, 0xf5, 0x21, 0xf6, 0xf7, 0xfe, 0x07, 0xef, 0xfd, 0x03,
  0x05, 0xf8, 0xfc, 0x0a, 0xf0, 0x1a, 0xfb, 0xf5, 0xf4, 0x07, 0x04, 0x05,
  0x0b, 0x2b, 0x0a, 0xfc, 0xfe, 0x1b, 0x0d, 0x18, 0xfd, 0x0b, 0x08, 0x1d,
  0x1b, 0x1e, 0x0e, 0x0b, 0xfd, 0x2d, 0x27, 0x14, 0x07, 0x1c, 0xfa, 0x00,
  0x07, 0x1d, 0x05, 0x08, 0xf1, 0x07, 0x02, 0x10, 0xf6, 0xe2, 0xff, 0xfb,
  0xd9, 0xee, 0xe9, 0xea, 0xce, 0xe9, 0xe1, 0xe7, 0xef, 0xd3, 0xe3, 0xf8,
  0xf8, 0xfa, 0xe7, 0xf9, 0xd0, 0xe2, 0xdf, 0xf6, 0x03, 0xf5, 0xe2, 0xef,
  0xed, 0xee, 0xfc, 0x07, 0x13, 0xe7, 0x17, 0xff, 0xfb, 0x0b, 0xfc, 0x0e,
  0xef, 0x00, 0x16, 0x0b, 0x09, 0xe5, 0x05, 0x07, 0x02, 0xf3, 0xff, 0x06,
  0x02, 0x04, 0x11, 0xfb, 0x0d, 0x07, 0xf3, 0x0f, 0x05, 0xfc, 0x0a, 0x07,
  0x0d, 0x21, 0x1f, 0x08, 0x14, 0x18, 0xfc, 0x1f, 0x04, 0x10, 0x38, 0x0f,
  0x15, 0x12, 0x0d, 0x0e, 0x25, 0x11, 0x0b, 0x09, 0x10, 0x19, 0x02, 0x13,
  0x03, 0x11, 0x17, 0x16, 0xf2, 0x0a, 0x16, 0x17, 0x05, 0x0f, 0x15, 0x25,
  0x0f, 0xff, 0x26, 0x26, 0x0e, 0x06, 0x31, 0x1a, 0x17, 0x18, 0x1f, 0x13,
  0x0e, 0x20, 0x1c, 0x22, 0x18, 0x15, 0x0b, 0x10, 0x08, 0x1d, 0x09, 0x1c,
  0x21, 0x08, 0x0c, 0x0d, 0x0a, 0x0b, 0x21, 0x11, 0x18, 0x29, 0x22, 0x1c,
  0x10, 0x0e, 0x30, 0x14, 0x28, 0x0b, 0x14, 0x2e, 0x17, 0xf8, 0x2c, 0x07,
  0x13, 0x13, 0x09, 0x18, 0x03, 0x11, 0x04, 0x1e, 0x1f, 0x25, 0x1f, 0x01,
  0x19, 0x14, 0x24, 0x11, 0x08, 0x10, 0xfc, 0x05, 0x38, 0x2b, 0x12, 0x28,
  0x04, 0x26, 0x1d, 0x11, 0x15, 0x11, 0x0e, 0x18, 0x0b, 0x1b, 0x0c, 0x0f,
  0x1d, 0x0e, 0x10, 0x1f, 0x16, 0x1a, 0x12, 0x09, 0xed, 0xf0, 0x01, 0xf9,
  0xed, 0x04, 0xff, 0xf7, 0xf9, 0xf1, 0xe0, 0x05, 0xfe, 0xe3, 0xd6, 0xed,
  0xf8, 0xfe, 0xec, 0x12, 0xed, 0xf8, 0xfc, 0x07, 0xf3, 0x0a, 0xee, 0xf8,
  0xf8, 0xff, 0xee, 0x08, 0xf1, 0x02, 0x01, 0x07, 0x07, 0x06, 0x16, 0x12,
  0xfa, 0x06, 0x16, 0x01, 0x18, 0xeb, 0xfd, 0xfd, 0xfc, 0xf9, 0xfc, 0x11,
  0x02, 0x00, 0x05, 0xfe, 0x05, 0x20, 0xf8, 0xfe, 0xfe, 0xee, 0x03, 0x0d,
  0x02, 0x01, 0x22, 0x08, 0x10, 0x01, 0xf6, 0x14, 0x06, 0x0f, 0x05, 0x0e,
  0xfd, 0x03, 0xf7, 0x0b, 0x0b, 0x07, 0x0c, 0x1c, 0x18, 0x0d, 0x08, 0x04,
  0x06, 0x0f, 0x11, 0x07, 0x17, 0xfd, 0x08, 0x0b, 0x10, 0x09, 0x0d, 0x13,
  0x25, 0xfe, 0xfc, 0x07, 0x19, 0x0d, 0x0f, 0x14, 0x02, 0x0d, 0x02, 0x04,
  0x20, 0x0b, 0x12, 0x30, 0x1d, 0x20, 0x1b, 0x0c, 0x27, 0x1a, 0x0e, 0x1b,
  0x29, 0x10, 0x1f, 0x07, 0x11, 0x1b, 0x24, 0x04, 0x18, 0x1e, 0x19, 0x1c,
  0x15, 0x02, 0x02, 0x07, 0x16, 0x0f, 0x0f, 0x18, 0x19, 0x0f, 0x1e, 0x00,
  0x16, 0x13, 0x14, 0x1b, 0xfc, 0x13, 0x1b, 0x25, 0x0f, 0x13, 0x01, 0x11,
  0x0e, 0x2e, 0x1c, 0x18, 0x0d, 0x24, 0x1c, 0x10, 0x1c, 0x13, 0x03, 0x1c,
  0x03, 0x05, 0x11, 0x0f, 0x22, 0xfe, 0x16, 0x1d, 0x06, 0x17, 0x0d, 0x14,
  0x08, 0x14, 0x12, 0x1d, 0x0e, 0x15, 0x07, 0x19, 0xfe, 0xce, 0xf6, 0x00,
  0xfb, 0xf2, 0xe8, 0xf5, 0xdd, 0xf4, 0xe5, 0xef, 0xfa, 0xe6, 0xe0, 0x02,
  0xfb, 0x06, 0xfe, 0x0a, 0xee, 0xfc, 0xf5, 0xfa, 0x0e, 0xfd, 0xdf, 0x03,
  0xf6, 0xf4, 0xec, 0xff, 0xfc, 0xf7, 0x0c, 0xf5, 0x08, 0x10, 0xf0, 0x00,
  0x05, 0x02, 0x2d, 0x0f, 0x00, 0xe4, 0x13, 0x07, 0x03, 0xfc, 0x04, 0x06,
  0x0d, 0x00, 0xf0, 0x06, 0xfa, 0x07, 0xf3, 0xff, 0xfb, 0xff, 0x1a, 0xfe,
  0x13, 0x11, 0x16, 0xfb, 0x08, 0x09, 0x07, 0x15, 0x0b, 0x0e, 0x21, 0x01,
  0x17, 0x04, 0xfb, 0x0e, 0x11, 0x0d, 0x14, 0x00, 0x10, 0x08, 0x03, 0x18,
  0x0c, 0x1c, 0xf6, 0xfe, 0x0c, 0x1c, 0x04, 0x0e, 0x0d, 0x13, 0x2b, 0x21,
  0x16, 0x05, 0x00, 0x0d, 0x17, 0x03, 0x22, 0xfe, 0x1c, 0x10, 0x18, 0x19,
  0x14, 0x2e, 0x0e, 0x28, 0x18, 0x08, 0x18, 0x0a, 0x1a, 0x13, 0x12, 0x13,
  0x1a, 0x05, 0x0f, 0x19, 0xfe, 0x0a, 0x27, 0x0a, 0x0f, 0x1e, 0x13, 0x1a,
  0x09, 0x03, 0x1a, 0x08, 0x0d, 0x04, 0x1c, 0x0d, 0x07, 0xf1, 0x24, 0x0f,
  0x13, 0x13, 0xff, 0x1b, 0xfe, 0x0e, 0x11, 0x22, 0x05, 0x0c, 0x0c, 0x05,
  0x03, 0x2a, 0x13, 0x18, 0x16, 0x2d, 0x10, 0xfa, 0x18, 0x0d, 0x06, 0x17,
  0x1e, 0x22, 0x2b, 0x15, 0x24, 0x08, 0x27, 0x0e, 0x18, 0x14, 0x15, 0x18,
  0x07, 0x15, 0x29, 0x20, 0x27, 0x08, 0x00, 0x11, 0xe5, 0xd9, 0x06, 0xf8,
  0xea, 0xd6, 0xea, 0xfc, 0xe0, 0xed, 0xe0, 0x03, 0x11, 0xd1, 0xe3, 0xf9,
  0xeb, 0xf2, 0x01, 0x05, 0xec, 0xf6, 0xf6, 0xff, 0xf2, 0xf6, 0xdd, 0x07,
  0xee, 0xf6, 0xfa, 0x04, 0xf6, 0xfb, 0x08, 0xfa, 0xf9, 0xfd, 0xff, 0x0b,
  0x0c, 0x08, 0x1f, 0x04, 0xff, 0xd8, 0x02, 0x02, 0x07, 0xff, 0xfe, 0x0c,
  0xf8, 0x04, 0x06, 0x0f, 0xf9, 0x02, 0x03, 0x02, 0x03, 0x04, 0xf5, 0x16,
  0xe6, 0x0b, 0x0d, 0xf0, 0x12, 0x17, 0x2c, 0x07, 0x06, 0x18, 0x27, 0x10,
  0xf8, 0x04, 0x11, 0x15, 0x02, 0x09, 0x17, 0xf7, 0xfd, 0x01, 0xf0, 0x0f,
  0x03, 0x13, 0x04, 0xff, 0x09, 0x05, 0x0e, 0x09, 0x11, 0x01, 0xf6, 0x22,
  0x11, 0x19, 0x0c, 0x00, 0x08, 0x11, 0xfd, 0x0b, 0xf4, 0x09, 0x10, 0xff,
  0x17, 0x30, 0x0c, 0x08, 0x0b, 0x0d, 0x0f, 0x05, 0x15, 0x0c, 0x24, 0x1b,
  0x18, 0xf7, 0x12, 0x1f, 0x07, 0xfc, 0x10, 0x10, 0x03, 0x0c, 0x0b, 0x0a,
  0x01, 0x01, 0x1b, 0xfe, 0x1d, 0xe9, 0x16, 0x16, 0x12, 0xfc, 0x0a, 0xe2,
  0x10, 0x11, 0x04, 0x19, 0x09, 0x0e, 0x07, 0x1d, 0x09, 0x10, 0x02, 0x04,
  0x13, 0x1d, 0x04, 0x0a, 0x00, 0x16, 0x0f, 0x08, 0x11, 0x20, 0x24, 0x12,
  0x0b, 0x01, 0x0d, 0x10, 0x22, 0x07, 0x1c, 0x07, 0x1c, 0x14, 0x14, 0x01,
  0xf8, 0x06, 0x0c, 0x23, 0x0d, 0x04, 0x04, 0x07, 0xf4, 0xed, 0xfc, 0x06,
  0xd8, 0xfe, 0xff, 0x05, 0xfa, 0x00, 0xea, 0xec, 0xff, 0xd2, 0xf5, 0x05,
  0xf7, 0xfb, 0xed, 0x16, 0xe2, 0x00, 0xfb, 0xf5, 0xe8, 0x07, 0xe0, 0xfa,
  0xdb, 0xff, 0xfc, 0xf9, 0xf3, 0xf9, 0x00, 0xfc, 0x00, 0x17, 0xf1, 0x0e,
  0x0f, 0xf6, 0x00, 0xf5, 0x11, 0xd7, 0xf6, 0x01, 0x0a, 0xfa, 0xff, 0x07,
  0xfb, 0xfc, 0x02, 0x0a, 0xf5, 0x05, 0xfd, 0x03, 0xf0, 0xf5, 0x1a, 0x00,
  0xfe, 0x07, 0xec, 0xf9, 0xff, 0x19, 0x0a, 0x0b, 0x11, 0x11, 0x14, 0x0b,
  0x1a, 0xf8, 0x0b, 0x20, 0x15, 0x0f, 0xf5, 0x1b, 0x0b, 0x0a, 0x16, 0x0a,
  0xf7, 0x06, 0xf7, 0x09, 0x03, 0xfe, 0xfd, 0x18, 0xf3, 0x14, 0x09, 0x1b,
  0x0c, 0xf6, 0x06, 0x06, 0x04, 0x14, 0x26, 0xf7, 0x03, 0x1d, 0x03, 0xf8,
  0x0f, 0x25, 0x0e, 0x22, 0x1a, 0x01, 0x07, 0xf3, 0x10, 0x07, 0x10, 0xfc,
  0xfa, 0x07, 0x13, 0x07, 0xf6, 0xf9, 0x15, 0x11, 0x03, 0x1a, 0x0b, 0x1a,
  0x07, 0x01, 0x05, 0x08, 0x06, 0xde, 0x0c, 0x14, 0x0b, 0x0b, 0x05, 0x0b,
  0x09, 0x0a, 0xf3, 0x17, 0xfd, 0x04, 0xf7, 0x0a, 0x00, 0x05, 0x02, 0x03,
  0xfa, 0x12, 0x08, 0x04, 0x0f, 0x35, 0x20, 0x09, 0x1b, 0x2b, 0x26, 0x19,
  0x1e, 0xf5, 0x01, 0x07, 0x1e, 0xf1, 0x26, 0x06, 0x19, 0x03, 0x0d, 0x0f,
  0x0e, 0x18, 0xfe, 0x16, 0x03, 0x16, 0x0d, 0x02, 0xe6, 0xdb, 0x04, 0x05,
  0xeb, 0xdf, 0x06, 0x00, 0xe6, 0xf3, 0xe5, 0xe7, 0xed, 0xc9, 0xf3, 0xf0,
  0x05, 0xfe, 0xf9, 0x06, 0xe5, 0xf2, 0xf4, 0xf6, 0xf7, 0x07, 0xd5, 0xf8,
  0xef, 0xf3, 0xfa, 0x04, 0xe7, 0x0e, 0x04, 0xfe, 0x11, 0x05, 0xd4, 0x04,
  0xf7, 0x05, 0x05, 0x0f, 0x17, 0xe5, 0xf2, 0x0e, 0xff, 0xf4, 0x03, 0x00,
  0xf9, 0xf9, 0xf8, 0x0d, 0xe9, 0x09, 0xfc, 0xfb, 0xfb, 0x01, 0x0f, 0x01,
  0x06, 0x18, 0x22, 0x0f, 0x0a, 0x24, 0x18, 0x09, 0x05, 0x0b, 0x21, 0x19,
  0x0b, 0xf3, 0x14, 0xfb, 0x12, 0x11, 0x17, 0x14, 0x11, 0x0a, 0x02, 0x0b,
  0x06, 0xfb, 0x0d, 0x07, 0x24, 0x14, 0x07, 0x04, 0x08, 0x0e, 0x0b, 0x15,
  0x0d, 0x0d, 0x03, 0x14, 0x20, 0x0d, 0x24, 0x14, 0xff, 0x0b, 0x13, 0x0b,
  0x1e, 0x06, 0x0c, 0x1a, 0x21, 0x08, 0x02, 0x00, 0x13, 0x1f, 0x13, 0x0c,
  0x0e, 0x16, 0x10, 0x17, 0x0f, 0x00, 0x20, 0xf0, 0x1a, 0xfd, 0x03, 0x14,
  0xfa, 0xf7, 0x24, 0x04, 0x27, 0xf5, 0x0b, 0x16, 0x06, 0xfd, 0x18, 0x12,
  0x12, 0x06, 0x11, 0x10, 0x04, 0x1c, 0x01, 0x10, 0x09, 0x0b, 0x0e, 0x0b,
  0x01, 0x17, 0x03, 0x01, 0x1a, 0x0d, 0x13, 0x13, 0x18, 0x12, 0x17, 0x13,
  0x0f, 0x08, 0x1c, 0x1c, 0x17, 0xf4, 0x12, 0x2b, 0x14, 0x05, 0x0c, 0x0f,
  0x0b, 0x0e, 0x09, 0x23, 0x03, 0x18, 0x0a, 0x0f, 0xe0, 0xdb, 0xed, 0x00,
  0xeb, 0xff, 0x00, 0xed, 0xe6, 0xe1, 0xbe, 0xe5, 0x0c, 0xc5, 0xdc, 0xfc,
  0xe7, 0x22, 0xf1, 0x21, 0xf6, 0xe7, 0xff, 0x04, 0xf7, 0x19, 0xd3, 0xfe,
  0xe7, 0xe9, 0xed, 0xfa, 0xef, 0xeb, 0x0c, 0xfb, 0x0a, 0x06, 0x07, 0x01,
  0xf3, 0x02, 0x09, 0x0c, 0x2b, 0xa3, 0xf6, 0x09, 0x1a, 0x0d, 0x0c, 0x1e,
  0xfd, 0xff, 0x0b, 0x07, 0xe7, 0x2b, 0xd0, 0xfe, 0xe8, 0x10, 0x02, 0x12,
  0xc9, 0x16, 0x0b, 0xf7, 0x17, 0x1a, 0x03, 0x1d, 0x01, 0x00, 0x03, 0x22,
  0x20, 0xe6, 0x03, 0x1b, 0x19, 0x1a, 0x1d, 0x24, 0x0f, 0x10, 0xfe, 0x15,
  0x10, 0x33, 0x12, 0x08, 0x11, 0x07, 0xf9, 0x00, 0x15, 0x24, 0x10, 0x0e,
  0x11, 0x13, 0xfd, 0x0f, 0x0e, 0x03, 0x15, 0x09, 0x2a, 0x04, 0x16, 0x07,
  0x13, 0x26, 0x10, 0x14, 0x11, 0x15, 0x11, 0x0e, 0x01, 0x32, 0x0b, 0x17,
  0x14, 0x0c, 0x02, 0x02, 0x01, 0xf7, 0x14, 0x14, 0xf7, 0x23, 0x11, 0x0b,
  0x00, 0x04, 0x08, 0x0c, 0x27, 0xfc, 0x0f, 0x11, 0x0c, 0x08, 0x16, 0x18,
  0x12, 0x06, 0x07, 0x07, 0x08, 0x17, 0xfb, 0x1b, 0x0b, 0x12, 0x06, 0x00,
  0x19, 0x1c, 0x09, 0x08, 0x0e, 0x11, 0x05, 0xfa, 0x11, 0x1a, 0xf0, 0x24,
  0x0c, 0x1c, 0x10, 0x0c, 0x1a, 0xfe, 0x19, 0x09, 0x1f, 0x12, 0x0a, 0x14,
  0x0d, 0xee, 0x0a, 0x18, 0x1c, 0x23, 0x0a, 0x0e, 0xfa, 0x02, 0x13, 0xf4,
  0x01, 0x07, 0x03, 0x01, 0x09, 0xff, 0xef, 0x16, 0x0e, 0xea, 0x00, 0x0d,
  0x0c, 0xf1, 0xf9, 0xe5, 0xf7, 0x05, 0xfa, 0x14, 0x05, 0x02, 0xf3, 0xfd,
  0xff, 0xff, 0xf5, 0x02, 0x18, 0x0c, 0xfa, 0x2c, 0x18, 0xf1, 0x0d, 0xfc,
  0x0c, 0x07, 0xf1, 0xec, 0xf8, 0x16, 0x14, 0xeb, 0x14, 0x1f, 0xfc, 0x16,
  0x11, 0x06, 0xfe, 0xfd, 0x09, 0x10, 0x1b, 0x0b, 0x13, 0x07, 0x1a, 0x10,
  0xca, 0xd7, 0xf0, 0xb3, 0xe3, 0xdf, 0xdb, 0xdc, 0xcd, 0xe0, 0xee, 0xcf,
  0xe3, 0xb2, 0xcc, 0xca, 0xcc, 0xca, 0xd4, 0xd6, 0xd0, 0xd9, 0xd2, 0xe3,
  0xe7, 0xcb, 0xc9, 0xdd, 0xda, 0xde, 0xd7, 0xd9, 0xd0, 0xed, 0xe1, 0x0d,
  0xf7, 0xf7, 0xd4, 0xd6, 0xcf, 0xf3, 0xfb, 0xcd, 0xef, 0xf4, 0xe3, 0xf4,
  0xdd, 0xeb, 0xd7, 0x0b, 0xdb, 0xec, 0xd5, 0xdb, 0xf2, 0xf4, 0xe5, 0xed,
  0xe9, 0xe2, 0xef, 0xf6, 0xde, 0xe4, 0xf4, 0x0a, 0xe4, 0xfc, 0xe3, 0xe8,
  0xe7, 0xec, 0x0b, 0xcc, 0xeb, 0xe6, 0xd8, 0xd4, 0xd4, 0xf2, 0xf1, 0xfb,
  0xe7, 0xfa, 0xe8, 0xf0, 0x00, 0xeb, 0xf6, 0xf7, 0xea, 0xea, 0xf3, 0xe9,
  0xec, 0xf2, 0xf7, 0xe4, 0xef, 0xef, 0xec, 0xf3, 0xe2, 0xf5, 0xdf, 0xfa,
  0xe4, 0xe7, 0xf3, 0x02, 0xe7, 0xf3, 0xf0, 0xf7, 0x03, 0xf1, 0xfd, 0xff,
  0xf4, 0xe0, 0xf3, 0xe4, 0xf2, 0xf0, 0x05, 0xe9, 0xeb, 0x04, 0x00, 0xfc,
  0xfd, 0x04, 0x15, 0x01, 0x08, 0x08, 0xf4, 0x07, 0x0e, 0xea, 0xf3, 0x02,
  0x08, 0xec, 0xfb, 0xfb, 0x08, 0x01, 0xfb, 0x09, 0xf7, 0x0a, 0xef, 0xfe,
  0x02, 0x08, 0xfa, 0xfd, 0x11, 0x0c, 0xf1, 0x24, 0x00, 0xeb, 0xf5, 0xe8,
  0x09, 0x01, 0x05, 0xee, 0xed, 0x13, 0x06, 0xf9, 0xff, 0x21, 0x0a, 0x13,
  0x15, 0x12, 0x11, 0xfd, 0x18, 0xf5, 0x12, 0x00, 0x0a, 0x08, 0x19, 0x05,
  0xdd, 0xcd, 0xe0, 0xab, 0xe8, 0xdf, 0xe2, 0xe9, 0xda, 0xe1, 0xd6, 0xf6,
  0xc6, 0xc8, 0xd0, 0xe5, 0xe6, 0xc8, 0xd4, 0xc8, 0xbe, 0xd2, 0xee, 0xc7,
  0xe9, 0xd9, 0xd7, 0xdb, 0xd9, 0xdf, 0xd7, 0xe4, 0xdc, 0xe6, 0xee, 0x0d,
  0xdf, 0xe2, 0xea, 0xd6, 0xea, 0xd8, 0x05, 0xda, 0xf6, 0xfa, 0xe3, 0xe0,
  0xd4, 0xf0, 0xc6, 0x06, 0xf5, 0xd4, 0xeb, 0xe0, 0xee, 0xdb, 0xe7, 0xee,
  0xf1, 0xea, 0xe7, 0xf1, 0xd9, 0xd5, 0xf2, 0x0c, 0xe6, 0xed, 0xe8, 0xd8,
  0xdb, 0xd8, 0x19, 0xed, 0xf8, 0xc9, 0xde, 0xec, 0xd2, 0x06, 0xd1, 0x08,
  0xfc, 0xe1, 0xe7, 0xf1, 0xe7, 0xe4, 0xe0, 0xf0, 0xeb, 0xee, 0x00, 0xff,
  0xf6, 0xe5, 0x06, 0x00, 0xdf, 0xff, 0xf5, 0x12, 0xe6, 0xf8, 0x1f, 0x06,
  0xe8, 0xfa, 0xf6, 0xf1, 0xf1, 0xfe, 0xfa, 0xf0, 0x00, 0xf3, 0xf9, 0xfc,
  0x04, 0xe5, 0xe8, 0xf7, 0xf0, 0xfb, 0x11, 0x05, 0xff, 0x03, 0x04, 0xf9,
  0xfa, 0x10, 0x0e, 0x05, 0xf7, 0x11, 0x05, 0x07, 0xfd, 0xf0, 0x00, 0x08,
  0xf8, 0xfd, 0xfa, 0x0c, 0xfa, 0xef, 0xf9, 0x09, 0xf2, 0xf9, 0xfe, 0x0a,
  0x00, 0x0c, 0xeb, 0x00, 0x04, 0x0d, 0xfb, 0x0e, 0x0d, 0xee, 0x05, 0xfe,
  0x10, 0x07, 0x05, 0xf8, 0xf7, 0x10, 0x0a, 0xf9, 0xfb, 0x14, 0x0f, 0x06,
  0x13, 0xf9, 0x18, 0xfc, 0x12, 0xf7, 0x05, 0xfe, 0x11, 0xfc, 0x1d, 0x02,
  0xf0, 0xd5, 0xe5, 0xb8, 0xd9, 0x0a, 0x02, 0xf7, 0xce, 0xe8, 0xdd, 0xf2,
  0xea, 0xc3, 0xfc, 0xde, 0xe7, 0xc6, 0xdd, 0xb2, 0xd6, 0xd4, 0xcd, 0xec,
  0xe3, 0xe5, 0xcf, 0xdb, 0xcc, 0xdd, 0xea, 0xd3, 0xec, 0xf0, 0xf2, 0x02,
  0xe1, 0xe3, 0xe9, 0xe7, 0xef, 0xdf, 0xe8, 0xf2, 0xdf, 0x13, 0xe0, 0xdd,
  0xe3, 0xdf, 0xe4, 0x1b, 0xe8, 0xe8, 0xf1, 0xc9, 0x0d, 0xe0, 0xe7, 0xdb,
  0xe4, 0xeb, 0xf8, 0xee, 0xee, 0xf0, 0xf5, 0x11, 0xf9, 0xf8, 0xf6, 0xd5,
  0xd3, 0xef, 0x08, 0xe5, 0xeb, 0xe5, 0xea, 0xd6, 0xe4, 0xec, 0xdf, 0xef,
  0xf5, 0xf0, 0xf9, 0xf2, 0xf9, 0xf0, 0xf7, 0xe5, 0xf5, 0xe3, 0xff, 0x02,
  0xe6, 0xe7, 0x07, 0xf0, 0xf5, 0xff, 0xeb, 0x1a, 0xe6, 0xf2, 0x17, 0x04,
  0xe0, 0xf1, 0xd9, 0xfc, 0xf2, 0xef, 0xfc, 0xf2, 0xf2, 0xf9, 0xf4, 0xe5,
  0xfb, 0xf5, 0xed, 0x02, 0xff, 0xf6, 0x09, 0xdd, 0xee, 0x03, 0x05, 0xfb,
  0x09, 0x0f, 0x09, 0x0b, 0x03, 0xfe, 0xfb, 0xff, 0x06, 0x00, 0xf4, 0x0a,
  0x06, 0x00, 0x0d, 0xe6, 0xef, 0xfd, 0xfd, 0x08, 0xfa, 0x0a, 0xf4, 0x00,
  0xfb, 0x0f, 0xfb, 0x04, 0x1d, 0x08, 0xf8, 0x24, 0x09, 0xef, 0x15, 0xf1,
  0xff, 0x00, 0xee, 0xf0, 0xe5, 0x1a, 0x0b, 0xea, 0x08, 0x11, 0x12, 0x1e,
  0x0d, 0x0e, 0x0b, 0x07, 0x15, 0x02, 0x09, 0x01, 0x06, 0x08, 0x10, 0x00,
  0xde, 0xe2, 0xda, 0xc6, 0xf1, 0xf4, 0xfe, 0xf7, 0xc9, 0xe9, 0xe4, 0xf8,
  0xe4, 0xd4, 0xd0, 0xed, 0xe0, 0xc3, 0xf1, 0xbd, 0xd6, 0xce, 0xe3, 0xd8,
  0xf1, 0xd5, 0xd3, 0xe3, 0xe6, 0xf5, 0xdb, 0xe1, 0xef, 0x03, 0xf6, 0xf1,
  0xd4, 0xfa, 0xdf, 0xde, 0xf3, 0xe3, 0xf1, 0xe6, 0xf7, 0x06, 0xec, 0xe3,
  0xcf, 0x08, 0xeb, 0x15, 0xf0, 0xe5, 0xe4, 0xed, 0xf2, 0xfe, 0xf0, 0xd5,
  0xe4, 0xef, 0xf6, 0xe5, 0xed, 0xc7, 0x01, 0xf0, 0xdc, 0xef, 0xde, 0xec,
  0xda, 0xfe, 0x14, 0xde, 0xea, 0xe6, 0xf7, 0xd8, 0xf7, 0x09, 0xe5, 0xff,
  0xec, 0xf1, 0xe0, 0xde, 0xfc, 0xf3, 0xe8, 0xfa, 0xf2, 0xdf, 0x07, 0xf4,
  0x00, 0xdb, 0x06, 0xe6, 0xec, 0xeb, 0xff, 0x02, 0xed, 0xed, 0x0b, 0xf0,
  0xe2, 0xe2, 0xff, 0x06, 0xfc, 0xef, 0x0c, 0xe4, 0xfa, 0xf9, 0x02, 0x00,
  0xec, 0xee, 0xe5, 0xfa, 0x03, 0xf6, 0x03, 0xe5, 0xf6, 0x00, 0x00, 0xf5,
  0xf5, 0x00, 0x04, 0x04, 0xfd, 0xf7, 0xf4, 0x02, 0x08, 0xef, 0xfb, 0x0b,
  0x06, 0xe7, 0x03, 0x06, 0xf9, 0xf5, 0x0d, 0x08, 0x04, 0x0a, 0xfe, 0xff,
  0xff, 0x00, 0xf7, 0xf9, 0x15, 0x08, 0xe4, 0x0c, 0xfb, 0xe2, 0x06, 0xf5,
  0x0d, 0xfb, 0x02, 0x03, 0xf9, 0xff, 0x02, 0xec, 0xfe, 0x07, 0x07, 0x0c,
  0x14, 0x0d, 0xf4, 0xf6, 0x15, 0xfc, 0x06, 0x0b, 0x07, 0xff, 0x05, 0x03,
  0xe7, 0xd2, 0xfc, 0xcc, 0xdb, 0xf4, 0xeb, 0xe5, 0xe2, 0xeb, 0xd3, 0xf8,
  0xdf, 0xdc, 0xe2, 0xf8, 0xe6, 0xcc, 0xe9, 0xce, 0xe4, 0xdd, 0xe3, 0xe4,
  0xd7, 0xe3, 0xca, 0xe0, 0xe1, 0xd9, 0xdf, 0xe5, 0xf8, 0xec, 0xeb, 0x0b,
  0xed, 0xf8, 0xef, 0xd7, 0xf3, 0xf9, 0xea, 0xde, 0xe3, 0x08, 0xfa, 0xf1,
  0xec, 0xee, 0xfc, 0x03, 0xe9, 0xf4, 0xe8, 0xda, 0x04, 0xe7, 0xee, 0xe7,
  0xeb, 0xee, 0xf1, 0xeb, 0xd3, 0xe7, 0xf2, 0x0b, 0xdd, 0xff, 0xed, 0xf6,
  0xe7, 0xd3, 0x14, 0xde, 0xe9, 0xd2, 0xd4, 0xd4, 0xd1, 0xf7, 0xd8, 0xf8,
  0xf9, 0xfb, 0xf0, 0xe2, 0xf5, 0xe5, 0xf1, 0xe9, 0xed, 0xed, 0x04, 0xf0,
  0xf3, 0xf7, 0xf9, 0xf2, 0xe7, 0xf5, 0xea, 0x11, 0xed, 0xdd, 0x0e, 0xfa,
  0xf7, 0xe6, 0xed, 0xef, 0x03, 0xee, 0x02, 0xec, 0xfd, 0x04, 0x06, 0xef,
  0xf6, 0xe4, 0xfd, 0xf9, 0xf5, 0xf1, 0x09, 0x01, 0xfa, 0x0b, 0x07, 0xf4,
  0xfb, 0x04, 0x24, 0x07, 0xfc, 0x0c, 0xee, 0x0e, 0x07, 0xf0, 0x09, 0x09,
  0x05, 0xe9, 0xfe, 0xf3, 0xf3, 0xf5, 0x06, 0x03, 0x06, 0x00, 0xf5, 0x03,
  0xff, 0xf7, 0xf0, 0x08, 0x0d, 0x05, 0xea, 0x06, 0x10, 0xe7, 0xf5, 0xf2,
  0x06, 0xf0, 0xf9, 0xe9, 0xf5, 0x14, 0x04, 0xed, 0xff, 0x17, 0x06, 0x22,
  0x18, 0xfb, 0xf9, 0x06, 0x08, 0x00, 0x11, 0x07, 0x11, 0x00, 0x04, 0x00,
  0xc6, 0xe2, 0xe3, 0xb8, 0xec, 0xfe, 0xec, 0xdf, 0xd6, 0xe4, 0xfc, 0x03,
  0xd8, 0xcb, 0xcb, 0xf7, 0xd8, 0xb5, 0xdf, 0xc2, 0xcd, 0xdf, 0xed, 0xf8,
  0xef, 0xe5, 0xe6, 0xf2, 0xe1, 0xeb, 0xd4, 0xdb, 0xeb, 0xe6, 0xdb, 0xf7,
  0xe6, 0xfa, 0xe0, 0xf3, 0xdf, 0xe4, 0xeb, 0xe6, 0xf7, 0x01, 0xec, 0xdd,
  0xdb, 0xf0, 0xe4, 0xed, 0x00, 0xf2, 0xe1, 0xdb, 0xe9, 0xf4, 0xfc, 0xcc,
  0xd9, 0xf7, 0xeb, 0xe3, 0xd8, 0xc2, 0xf7, 0x16, 0xd7, 0xe5, 0xd4, 0xef,
  0xcb, 0xe6, 0x06, 0xde, 0xee, 0xd9, 0xd5, 0xe4, 0xe2, 0xde, 0xdc, 0x1d,
  0xf1, 0xf5, 0xfc, 0xdc, 0xf2, 0xe7, 0xec, 0xed, 0xd8, 0xeb, 0xe8, 0xf0,
  0xe0, 0xea, 0xfc, 0x1d, 0xdd, 0xf7, 0xe5, 0x07, 0xf5, 0xe9, 0xfe, 0x10,
  0xe3, 0xe7, 0xf7, 0xf0, 0xfb, 0xef, 0xf1, 0xfb, 0xf2, 0xeb, 0xf8, 0xde,
  0x02, 0xf4, 0xda, 0x04, 0xec, 0xd8, 0x0b, 0x02, 0xfc, 0x0a, 0x03, 0xf0,
  0x02, 0x03, 0x05, 0x06, 0x0a, 0x0f, 0xec, 0x22, 0x12, 0xeb, 0x11, 0x17,
  0x0f, 0xeb, 0x02, 0x03, 0x0a, 0x07, 0x07, 0xf6, 0x02, 0xff, 0x08, 0x09,
  0xf6, 0xf4, 0xea, 0x01, 0x2f, 0x0b, 0xfd, 0x1b, 0x0c, 0xf6, 0xed, 0xfd,
  0x15, 0x0e, 0xfb, 0xe7, 0xe5, 0x1c, 0x06, 0xf2, 0xe8, 0x24, 0xfe, 0x20,
  0x0e, 0x0b, 0xf4, 0x1b, 0x06, 0xe0, 0x0e, 0xf7, 0x06, 0xf9, 0x0e, 0xfd,
  0xca, 0xcb, 0xe2, 0xcd, 0xe7, 0xf3, 0xf7, 0xe6, 0xde, 0xf5, 0x15, 0x00,
  0xec, 0xc9, 0xe4, 0x01, 0xe7, 0xd3, 0xe2, 0xf6, 0xea, 0xd6, 0xe7, 0xe5,
  0xe3, 0xeb, 0xcd, 0xe2, 0xd7, 0xee, 0xe8, 0xd1, 0x06, 0x0a, 0xf4, 0x09,
  0xf4, 0xf0, 0xe0, 0xe5, 0xe6, 0xe3, 0xf3, 0xeb, 0xf9, 0xf2, 0xe1, 0xe8,
  0xf4, 0xf8, 0xe6, 0x17, 0xfb, 0xdf, 0xf7, 0xf1, 0xfe, 0xed, 0xf9, 0xed,
  0xe9, 0xe9, 0x03, 0xf0, 0xdb, 0xdd, 0xfb, 0xf7, 0xf5, 0xdc, 0xef, 0x04,
  0xd9, 0xec, 0x08, 0xfa, 0xf2, 0xe6, 0xdd, 0xe3, 0xe5, 0xe6, 0xeb, 0x13,
  0xef, 0xe8, 0xf5, 0xee, 0xf4, 0xfb, 0xe7, 0xfc, 0xf8, 0xeb, 0xf5, 0xfd,
  0xe8, 0x0d, 0xf5, 0xf3, 0xf2, 0x01, 0xe7, 0x0d, 0xf4, 0xe8, 0x11, 0x11,
  0xe3, 0xf6, 0xd8, 0xf5, 0xe3, 0xe7, 0xe3, 0xf6, 0xf2, 0xef, 0xf9, 0xfb,
  0x02, 0xf1, 0xf7, 0xf3, 0xf4, 0xfd, 0x04, 0x05, 0x96, 0xe4, 0xff, 0xff,
  0x04, 0x00, 0x00, 0x00, 0x80, 0x00, 0x00, 0x00, 0x95, 0xfe, 0xff, 0xff,
  0xd7, 0x02, 0x00, 0x00, 0x2e, 0xfa, 0xff, 0xff, 0x97, 0x02, 0x00, 0x00,
  0xb7, 0x00, 0x00, 0x00, 0x8d, 0x01, 0x00, 0x00, 0x20, 0x02, 0x00, 0x00,
  0x3f, 0x05, 0x00, 0x00, 0x83, 0xff, 0xff, 0xff, 0x1e, 0x03, 0x00, 0x00,
  0x6a, 0x05, 0x00, 0x00, 0xf5, 0x01, 0x00, 0x00, 0x9f, 0x07, 0x00, 0x00,
  0xac, 0x02, 0x00, 0x00, 0x21, 0x01, 0x00, 0x00, 0xec, 0x01, 0x00, 0x00,
  0x0d, 0xff, 0xff, 0xff, 0xfc, 0x03, 0x00, 0x00, 0xf8, 0x01, 0x00, 0x00,
  0x4e, 0x03, 0x00, 0x00, 0x9c, 0xfc, 0xff, 0xff, 0xf3, 0xfe, 0xff, 0xff,
  0x65, 0xf7, 0xff, 0xff, 0xce, 0x01, 0x00, 0x00, 0x1d, 0xfe, 0xff, 0xff,
  0xda, 0x07, 0x00, 0x00, 0x45, 0xfe, 0xff, 0xff, 0x73, 0xfc, 0xff, 0xff,
  0x1a, 0xfc, 0xff, 0xff, 0xbb, 0x00, 0x00, 0x00, 0x3c, 0xff, 0xff, 0xff,
  0x23, 0x05, 0x00, 0x00, 0x22, 0xe5, 0xff, 0xff, 0x04, 0x00, 0x00, 0x00,
  0x00, 0x12, 0x00, 0x00, 0xf9, 0xf7, 0xeb, 0x27, 0x09, 0xc0, 0xcc, 0xd9,
  0x44, 0x0b, 0x14, 0x12, 0x10, 0xe3, 0xe6, 0x38, 0xec, 0xfc, 0xde, 0xc4,
  0x02, 0xe1, 0x43, 0x9f, 0xb9, 0xc9, 0xbe, 0xfe, 0xdd, 0x0d, 0x06, 0xf2,
  0x31, 0x94, 0x81, 0x0f, 0xaa, 0xd2, 0x0e, 0xd1, 0x2c, 0xe3, 0x9e, 0x0a,
  0xbb, 0xe3, 0xce, 0xd4, 0x43, 0x2a, 0xf3, 0x0a, 0x04, 0x37, 0x12, 0xd8,
  0xd6, 0x1e, 0xca, 0x41, 0x31, 0x37, 0x06, 0x00, 0xfe, 0xbb, 0xc5, 0x1b,
  0x11, 0xe4, 0xd6, 0xe2, 0x14, 0xe1, 0xe4, 0xb6, 0x28, 0x18, 0x24, 0x2c,
  0x78, 0xd2, 0xbf, 0xb4, 0xdb, 0xba, 0x25, 0x40, 0x34, 0xfe, 0x2b, 0xf8,
  0x23, 0x1f, 0xac, 0x02, 0xf9, 0x1c, 0xf5, 0xda, 0x1a, 0xfa, 0xd2, 0xe6,
  0xef, 0xf5, 0x13, 0x25, 0x10, 0x20, 0x60, 0xf7, 0x02, 0xc3, 0xd1, 0x10,
  0xf3, 0xa2, 0x0a, 0xd6, 0xdf, 0xe4, 0xff, 0xe3, 0x33, 0x15, 0xdb, 0x10,
  0x4f, 0xc3, 0xf2, 0xef, 0xfb, 0xa0, 0x32, 0xe8, 0x1a, 0xc8, 0x0d, 0x09,
  0x0f, 0x04, 0x84, 0x0d, 0x2f, 0xd2, 0xd1, 0x35, 0x38, 0x4b, 0xfc, 0xee,
  0x28, 0xfd, 0xd0, 0x56, 0xda, 0xfe, 0x37, 0x66, 0xfa, 0xad, 0xd0, 0xf7,
  0x16, 0x20, 0x2f, 0xfe, 0x34, 0x28, 0xda, 0x2d, 0xdb, 0x62, 0x76, 0x2a,
  0x01, 0xd1, 0xbd, 0xc4, 0xe6, 0x44, 0x27, 0xfe, 0x51, 0x54, 0xe8, 0x58,
  0xdb, 0x20, 0xec, 0xdc, 0x12, 0xfd, 0x05, 0xf8, 0x3f, 0xd4, 0x09, 0x1e,
  0x61, 0x07, 0x00, 0x32, 0xe9, 0x48, 0xf3, 0x7f, 0xf7, 0xa9, 0x04, 0xd1,
  0xfe, 0x8f, 0x05, 0xf3, 0x2c, 0x47, 0x21, 0xeb, 0x62, 0x30, 0x31, 0x14,
  0xfa, 0xb7, 0xbd, 0x07, 0x0a, 0x58, 0xa0, 0xe2, 0x34, 0xf0, 0x40, 0x1a,
  0xda, 0x03, 0x05, 0xdb, 0x3c, 0xb5, 0xb3, 0x3a, 0x18, 0xa6, 0x3d, 0xf4,
  0x0f, 0x34, 0xf9, 0xfe, 0x54, 0xd5, 0xf2, 0xdc, 0x50, 0xa7, 0xc0, 0xde,
  0xf7, 0x08, 0xb0, 0xfa, 0x29, 0xcc, 0xd4, 0x55, 0xf8, 0xed, 0xcf, 0xed,
  0x12, 0xa8, 0xbe, 0x2a, 0xfc, 0xfc, 0x38, 0x28, 0x53, 0xbc, 0x13, 0xf3,
  0xca, 0xc5, 0xd7, 0xda, 0x02, 0x11, 0x04, 0xeb, 0x10, 0xd6, 0x16, 0x2c,
  0x4f, 0xe8, 0x06, 0xcb, 0x2c, 0xe1, 0xd3, 0x0b, 0x17, 0x0c, 0x00, 0x14,
  0x0f, 0xb0, 0xc6, 0x0f, 0xfa, 0xe2, 0xdb, 0x1a, 0x31, 0x06, 0xd4, 0xf6,
  0x2c, 0xd0, 0x40, 0x7f, 0x3e, 0xcd, 0x69, 0x75, 0x43, 0xca, 0x14, 0x18,
  0x17, 0x26, 0x2c, 0x3d, 0x3b, 0x1f, 0x04, 0xf5, 0xe2, 0xf0, 0x1a, 0xfd,
  0xce, 0xf0, 0xed, 0xf7, 0xde, 0x25, 0xe0, 0xfd, 0x0d, 0xdb, 0x17, 0x1a,
  0x12, 0xc0, 0x01, 0x23, 0x08, 0xab, 0xf7, 0xcc, 0xc5, 0xdc, 0xee, 0x00,
  0xed, 0xea, 0xf8, 0x29, 0x1a, 0x2c, 0x11, 0x04, 0x09, 0x18, 0x48, 0x45,
  0x08, 0x22, 0x5a, 0xf5, 0x0e, 0xd1, 0x0f, 0x0e, 0xef, 0xb9, 0x26, 0x3b,
  0xf6, 0xee, 0xe4, 0x08, 0xf8, 0x2c, 0xe0, 0x00, 0xed, 0x16, 0xc6, 0xe7,
  0xc6, 0xd0, 0xbe, 0xf2, 0xda, 0xf5, 0xc4, 0x0f, 0xd0, 0xf7, 0xa0, 0xdf,
  0xfc, 0x16, 0xd1, 0x47, 0x2d, 0x12, 0xfa, 0x06, 0xff, 0x30, 0xda, 0x32,
  0x13, 0x0d, 0xf2, 0xff, 0xfe, 0x57, 0x11, 0xd7, 0x35, 0xde, 0xfa, 0xbb,
  0x13, 0xf6, 0xe0, 0x16, 0x09, 0x2d, 0x3e, 0xf8, 0xc0, 0x79, 0x02, 0xb8,
  0xb8, 0xdd, 0xe3, 0xb0, 0xcc, 0xeb, 0xd4, 0xc4, 0xf9, 0xde, 0xed, 0x0e,
  0x02, 0x63, 0x7f, 0xc0, 0xd7, 0xd2, 0x30, 0xd7, 0xb0, 0xbe, 0xec, 0xf4,
  0xad, 0xc8, 0xd0, 0xa3, 0xf0, 0x4a, 0x05, 0x22, 0x30, 0x3b, 0xff, 0xf6,
  0xf6, 0x48, 0xfe, 0xe5, 0x14, 0xc0, 0xfb, 0x1d, 0x0c, 0x36, 0x05, 0xfb,
  0xf1, 0xd2, 0x11, 0xb4, 0xdb, 0xc9, 0xd5, 0xee, 0xd8, 0xca, 0xf4, 0xcd,
  0xf0, 0x54, 0x3f, 0xe2, 0xf7, 0xf2, 0xcf, 0x1f, 0x00, 0xac, 0xe9, 0xf1,
  0xea, 0xc7, 0xc8, 0xf7, 0xf6, 0x27, 0xfa, 0x24, 0x52, 0x1b, 0x02, 0xe1,
  0xe8, 0xf1, 0xf6, 0x17, 0x03, 0xe9, 0x0f, 0x0a, 0xc5, 0xf0, 0x2d, 0xd6,
  0xed, 0xe0, 0xd7, 0xdb, 0xeb, 0x12, 0xe7, 0xaa, 0x19, 0xdc, 0xc1, 0xc4,
  0xd1, 0x26, 0x4e, 0xed, 0xae, 0xe5, 0xf7, 0x1a, 0xeb, 0xad, 0xd2, 0x2e,
  0xff, 0xc2, 0xdc, 0x03, 0x1e, 0xcb, 0xde, 0xf5, 0x22, 0x0a, 0x37, 0xfe,
  0x17, 0xf3, 0xe8, 0xe5, 0x12, 0xcd, 0x35, 0x2c, 0x1c, 0xad, 0xb4, 0xc0,
  0x01, 0xcb, 0x2e, 0x12, 0xe2, 0xec, 0x16, 0x40, 0x23, 0x2a, 0x2f, 0x29,
  0x1b, 0xd4, 0x87, 0x39, 0x58, 0xc3, 0x6a, 0x7d, 0x7c, 0x22, 0x09, 0x1e,
  0xea, 0x22, 0xd1, 0x28, 0x3d, 0xef, 0x20, 0x04, 0xf3, 0x04, 0xf6, 0xff,
  0x0b, 0x20, 0x0d, 0x05, 0x01, 0x4e, 0x29, 0x28, 0xd4, 0xce, 0xf0, 0xfd,
  0xd6, 0xea, 0xed, 0x9b, 0xc6, 0xcf, 0x0d, 0x1e, 0x0f, 0x10, 0xd6, 0x0f,
  0xf6, 0xad, 0x0f, 0xfd, 0xe6, 0x01, 0x2f, 0x76, 0xfb, 0x3d, 0x18, 0xe5,
  0x11, 0x13, 0xd0, 0xf1, 0x29, 0xfa, 0xef, 0xf6, 0x0e, 0x05, 0x3e, 0x01,
  0xe7, 0xeb, 0x1e, 0xf2, 0x19, 0x1b, 0x26, 0xb0, 0xc1, 0xe9, 0xd0, 0xe6,
  0xc1, 0x07, 0xcc, 0x0a, 0x07, 0x30, 0x04, 0x06, 0x20, 0x1f, 0xec, 0x02,
  0x0f, 0xad, 0xd9, 0xfb, 0x2f, 0x04, 0x14, 0x3b, 0x7f, 0xd6, 0x3a, 0x0e,
  0xf1, 0xfc, 0x8f, 0x3c, 0x06, 0xc5, 0x0c, 0x04, 0x00, 0xcc, 0x6d, 0x37,
  0xdd, 0xac, 0xd3, 0xf6, 0xde, 0x19, 0x20, 0xfe, 0x05, 0x16, 0xfc, 0xfc,
  0x00, 0x0e, 0x25, 0x7e, 0xdd, 0x01, 0x34, 0x6c, 0xdf, 0x3a, 0xd5, 0x32,
  0x1a, 0xef, 0xfb, 0x31, 0x5b, 0x7f, 0x18, 0xe6, 0x36, 0x56, 0xf2, 0xe0,
  0x1f, 0xf8, 0x30, 0x2f, 0x1b, 0xe3, 0xcc, 0xe5, 0x2b, 0xa8, 0x59, 0x53,
  0x23, 0xb2, 0xd3, 0xe4, 0x11, 0xe3, 0xae, 0xd0, 0x01, 0xde, 0x01, 0x9a,
  0x40, 0xe2, 0xf4, 0x13, 0xda, 0x0d, 0x07, 0x14, 0x1b, 0x32, 0xed, 0xc7,
  0xcc, 0x8a, 0x25, 0x41, 0x2f, 0x11, 0xcb, 0x1d, 0x00, 0xea, 0x1f, 0xf0,
  0x2d, 0xf2, 0xe5, 0x30, 0xfa, 0x0d, 0xf7, 0x46, 0xe9, 0xc3, 0xfb, 0xff,
  0xe8, 0xa8, 0x13, 0x41, 0xca, 0xde, 0xc5, 0xcd, 0x1b, 0xbe, 0x31, 0x26,
  0xec, 0x32, 0xca, 0x43, 0xd9, 0xbd, 0xff, 0x05, 0x02, 0x05, 0xdf, 0x38,
  0xb2, 0xb5, 0x28, 0xe0, 0x24, 0xd4, 0xfc, 0xd7, 0x0d, 0x05, 0x05, 0xde,
  0x0a, 0xff, 0xcb, 0xbc, 0x0e, 0xa9, 0x04, 0xf9, 0x0e, 0xdc, 0xe0, 0x11,
  0xf1, 0x0e, 0xe0, 0x2f, 0xd2, 0x42, 0xed, 0x1b, 0x38, 0xb3, 0xac, 0x0e,
  0xf2, 0xcf, 0xcf, 0xe0, 0x39, 0xce, 0xce, 0xe0, 0xba, 0xfb, 0xd3, 0xe0,
  0x18, 0xd6, 0x20, 0xff, 0xf5, 0x3b, 0x10, 0x04, 0xea, 0x5a, 0x7f, 0x50,
  0x2b, 0x42, 0x08, 0xbb, 0xfc, 0xce, 0xd8, 0x5c, 0xcf, 0x27, 0xdf, 0x13,
  0x0d, 0xcd, 0x1e, 0x3c, 0x34, 0xa4, 0xfb, 0xe6, 0xfc, 0xef, 0xde, 0x39,
  0x0e, 0xd6, 0xea, 0x0a, 0x58, 0xaa, 0xce, 0xe3, 0xac, 0x1a, 0xb7, 0xc8,
  0x12, 0x9b, 0xca, 0xe2, 0x1c, 0x72, 0x0a, 0xec, 0x33, 0x04, 0x04, 0x0d,
  0xcf, 0x31, 0x5a, 0x37, 0x08, 0xde, 0xc6, 0xf1, 0xff, 0xe3, 0xc6, 0x1b,
  0x39, 0x11, 0x0e, 0xfd, 0x01, 0xac, 0x2c, 0x4b, 0xeb, 0x9e, 0xe5, 0xe5,
  0xf7, 0xbb, 0xf3, 0xfc, 0xf7, 0xce, 0x1d, 0x10, 0x03, 0xe4, 0xa7, 0xa7,
  0xf0, 0xf0, 0x10, 0xb3, 0x15, 0x32, 0x13, 0x04, 0x1a, 0xdc, 0x21, 0xe3,
  0x26, 0x1f, 0xef, 0x1c, 0xd4, 0xd1, 0xe6, 0xdb, 0x1e, 0xf0, 0x11, 0x39,
  0x35, 0xdb, 0xd2, 0x17, 0xcb, 0xe4, 0xff, 0xd3, 0x06, 0xcc, 0xf0, 0x19,
  0x3c, 0xa9, 0xf3, 0xf4, 0xcc, 0xe2, 0xf4, 0xbb, 0xc2, 0xb9, 0xe3, 0xff,
  0x1f, 0x88, 0x10, 0x2a, 0x18, 0x1e, 0xc5, 0xa9, 0x3f, 0x20, 0x30, 0x4b,
  0x1f, 0x74, 0x7f, 0x6b, 0x31, 0xbd, 0xb8, 0x17, 0xd3, 0xe1, 0xbf, 0xeb,
  0x17, 0x14, 0x2a, 0x09, 0xb8, 0x08, 0xf2, 0xee, 0xb1, 0xc8, 0xcd, 0xc9,
  0xe1, 0xe8, 0xf5, 0xdd, 0x42, 0x08, 0x05, 0xfa, 0xec, 0x02, 0xd2, 0x01,
  0x0f, 0x9a, 0xc3, 0x02, 0x2c, 0x1a, 0x35, 0x0c, 0x07, 0x1a, 0x31, 0x57,
  0x00, 0x36, 0xe2, 0xd4, 0xf6, 0x05, 0xb6, 0x07, 0xb6, 0xd5, 0x23, 0xfd,
  0xe2, 0xfe, 0xcb, 0xf3, 0x00, 0x15, 0xef, 0xd3, 0x3b, 0xc5, 0x9c, 0xd3,
  0x15, 0xba, 0xf7, 0xd6, 0x2d, 0xe8, 0xe9, 0x35, 0xdb, 0xcb, 0xaf, 0xe1,
  0x5d, 0xae, 0xbb, 0x07, 0x35, 0xb9, 0xd0, 0x16, 0xf6, 0x1e, 0xd6, 0x1a,
  0xf7, 0x0d, 0xd1, 0xf3, 0x1f, 0xc0, 0xe7, 0x32, 0x2e, 0xfa, 0x35, 0x0d,
  0x27, 0x50, 0x59, 0x1b, 0xf3, 0x32, 0xea, 0x25, 0x31, 0x05, 0x19, 0xfb,
  0xee, 0x0c, 0x0a, 0xde, 0xff, 0x10, 0xf6, 0x1a, 0x12, 0x38, 0x27, 0xd4,
  0xed, 0x81, 0xc8, 0xcb, 0x0d, 0xec, 0xde, 0x0c, 0x05, 0xc0, 0xea, 0x37,
  0x9f, 0xe7, 0xb6, 0xec, 0xd4, 0xe8, 0x10, 0xfe, 0x01, 0xcc, 0x0f, 0x01,
  0x0a, 0x1b, 0x39, 0x44, 0x77, 0x2c, 0x11, 0xea, 0x0e, 0xc7, 0x01, 0x0a,
  0x19, 0xf4, 0xd7, 0x09, 0x0a, 0x32, 0x0d, 0xf9, 0x2e, 0xf9, 0x2d, 0x12,
  0x30, 0xcd, 0xaf, 0x98, 0x26, 0x92, 0xcc, 0xc9, 0x10, 0x2c, 0xca, 0x06,
  0xd5, 0x07, 0xe1, 0x99, 0xe1, 0x21, 0x4d, 0xc7, 0x19, 0x32, 0x05, 0xe4,
  0x0a, 0x4c, 0x0f, 0x39, 0xdf, 0x4b, 0x6b, 0x29, 0x27, 0xbe, 0x0e, 0xd8,
  0xbf, 0xd7, 0xcc, 0xa4, 0xec, 0x41, 0xb8, 0xf4, 0xfa, 0x0a, 0xbd, 0xfc,
  0xdc, 0xeb, 0xef, 0x20, 0xe8, 0x89, 0xe7, 0x04, 0x2d, 0xe0, 0xae, 0xde,
  0x0b, 0x19, 0x0d, 0xdf, 0x18, 0x01, 0xe6, 0xff, 0xfa, 0xe7, 0xd8, 0x4f,
  0x38, 0xb2, 0x11, 0xfa, 0x02, 0xff, 0xfb, 0xda, 0x33, 0xf8, 0x2e, 0xbf,
  0x2f, 0xfd, 0x0f, 0xb5, 0xf6, 0xd0, 0x1a, 0x1f, 0x20, 0xfa, 0x20, 0xec,
  0xde, 0xef, 0xdb, 0xeb, 0xb8, 0x10, 0xd1, 0x28, 0xc4, 0xfe, 0x91, 0x07,
  0xa4, 0x18, 0x21, 0x25, 0xe7, 0x1c, 0xce, 0x33, 0x31, 0xe0, 0x02, 0x23,
  0xf6, 0xe4, 0x1e, 0x1c, 0x0c, 0xe0, 0xd8, 0x20, 0xfe, 0xcf, 0x01, 0x39,
  0xf3, 0x22, 0xd8, 0x14, 0x4f, 0x0b, 0x3b, 0x35, 0xd7, 0xf4, 0x00, 0xc2,
  0xa9, 0xba, 0x81, 0xf8, 0x42, 0xa8, 0xf8, 0xb2, 0xb1, 0xf0, 0xf8, 0xff,
  0x17, 0x14, 0xc6, 0x1f, 0x00, 0xb4, 0xcf, 0x30, 0xbb, 0xf7, 0xdd, 0x31,
  0xd2, 0xd1, 0xc6, 0xf8, 0xd8, 0xf1, 0x9b, 0xa4, 0xed, 0xd2, 0x0c, 0xf2,
  0x0d, 0xe6, 0xf8, 0xe6, 0x13, 0x1d, 0xdd, 0xf8, 0xd4, 0x22, 0x01, 0xed,
  0x24, 0xe4, 0xcd, 0xc5, 0xf7, 0xbb, 0xe4, 0xff, 0xf6, 0x35, 0xb8, 0xfc,
  0xd8, 0xf6, 0xfa, 0xca, 0xcf, 0x16, 0x5f, 0xc2, 0x05, 0xf2, 0xe4, 0x05,
  0xa6, 0xf4, 0xa7, 0xd4, 0x05, 0x97, 0xef, 0xc8, 0xe4, 0xfe, 0x2f, 0x1e,
  0x18, 0x3a, 0xf4, 0x06, 0x45, 0x33, 0xda, 0x07, 0xf5, 0x2b, 0x43, 0x28,
  0x2c, 0xfb, 0x94, 0xf9, 0xd8, 0xe7, 0xd8, 0x05, 0x13, 0xf3, 0x02, 0xe7,
  0xcd, 0xe5, 0xc9, 0x09, 0xae, 0x2b, 0x49, 0xc1, 0xe3, 0x20, 0xc2, 0xe4,
  0x81, 0xc1, 0xd5, 0xee, 0xfc, 0xcb, 0x18, 0xa8, 0x17, 0x33, 0x3e, 0xd6,
  0x2e, 0x3d, 0x15, 0x06, 0xfd, 0x1a, 0x2f, 0xcb, 0xe7, 0xe3, 0x22, 0x1b,
  0x15, 0xd5, 0x11, 0xee, 0xb0, 0xe9, 0x17, 0xe5, 0x04, 0xe8, 0xc3, 0xda,
  0xe0, 0xf8, 0xaf, 0x24, 0x91, 0x6d, 0x57, 0xe0, 0xc9, 0xe7, 0x02, 0xa8,
  0x82, 0x99, 0xdc, 0x8e, 0xf8, 0x9e, 0xd1, 0xe0, 0xd4, 0x46, 0x28, 0x0d,
  0x0f, 0x1c, 0xf5, 0xe8, 0xf1, 0x0f, 0x21, 0x2b, 0xf4, 0x0b, 0x1f, 0xd4,
  0x01, 0xd3, 0xc2, 0xe1, 0x05, 0xe4, 0xe0, 0x20, 0x21, 0xe6, 0xf3, 0xcd,
  0xd2, 0xdd, 0xf2, 0xea, 0x29, 0xeb, 0x0c, 0x40, 0xce, 0xf2, 0xf5, 0x57,
  0x35, 0xf1, 0xdc, 0xf8, 0xf2, 0xf9, 0xed, 0x1a, 0x50, 0xbf, 0xb6, 0xd8,
  0xed, 0xf4, 0xb9, 0x26, 0x7f, 0xe8, 0xef, 0x49, 0xef, 0x23, 0xf7, 0xd0,
  0x25, 0xcc, 0x19, 0x10, 0x35, 0x26, 0x13, 0xe7, 0x0e, 0x24, 0x48, 0x04,
  0xf6, 0x3a, 0x36, 0x17, 0xfd, 0xbe, 0x19, 0xf7, 0x14, 0x07, 0x57, 0x3f,
  0xe3, 0xe9, 0xed, 0x3e, 0xd8, 0x2c, 0xf5, 0x00, 0x2c, 0xb3, 0xc9, 0xdb,
  0xf7, 0xc1, 0xd3, 0xf2, 0x0f, 0xbb, 0x3d, 0xbf, 0x11, 0xec, 0xaf, 0xed,
  0x11, 0xaa, 0x09, 0x23, 0x09, 0x10, 0x3d, 0x27, 0x3f, 0x2c, 0x5e, 0x46,
  0xda, 0x2d, 0x53, 0x47, 0xea, 0x9c, 0xd0, 0x18, 0xdd, 0xec, 0xeb, 0xde,
  0xf9, 0x1c, 0xf0, 0xf8, 0xeb, 0x16, 0x08, 0x06, 0x31, 0xc4, 0xea, 0xe3,
  0x1a, 0xa2, 0xca, 0x24, 0x58, 0x12, 0xca, 0xcb, 0x20, 0xf1, 0xd2, 0x15,
  0x4d, 0xbc, 0xe8, 0x3a, 0xf9, 0xe5, 0x10, 0xc7, 0xd8, 0x0c, 0xf4, 0x32,
  0xf8, 0xf0, 0x15, 0xf7, 0xc3, 0x73, 0x31, 0xf9, 0xa6, 0x08, 0x15, 0x0a,
  0xb3, 0xb8, 0xda, 0x98, 0xe5, 0x97, 0xc9, 0xd6, 0xba, 0xde, 0x41, 0x16,
  0xe5, 0x0b, 0xd5, 0xe7, 0x81, 0xfb, 0xe2, 0xf8, 0xeb, 0xfd, 0x11, 0xf2,
  0xa0, 0x17, 0x39, 0x33, 0x47, 0x9c, 0xfb, 0xe1, 0xf0, 0xee, 0x04, 0x02,
  0x36, 0x04, 0xef, 0x22, 0x08, 0x51, 0x16, 0x61, 0xf1, 0x03, 0x68, 0x28,
  0x9c, 0xd9, 0xd3, 0xd7, 0xf3, 0x02, 0xdd, 0x8b, 0xf3, 0xfe, 0xfc, 0x12,
  0x2d, 0xd0, 0x05, 0x1b, 0x15, 0xca, 0xdf, 0xd6, 0xf5, 0x06, 0x1e, 0x0e,
  0x06, 0xcd, 0x3d, 0x0e, 0x4b, 0x36, 0x58, 0xe0, 0xf1, 0x1a, 0xf3, 0x3b,
  0x21, 0x1e, 0x5d, 0x40, 0x21, 0x42, 0x62, 0x50, 0xed, 0x0a, 0x31, 0xf6,
  0x0a, 0xc4, 0xc9, 0x1c, 0x1a, 0xe9, 0x28, 0x03, 0xf4, 0xfe, 0x1a, 0xfc,
  0x0c, 0xa4, 0x1d, 0x1f, 0xc3, 0xe7, 0xbc, 0xd0, 0x05, 0x45, 0x15, 0xeb,
  0x15, 0x31, 0x31, 0x6c, 0x66, 0x25, 0xf6, 0x1f, 0x2e, 0x1b, 0x4e, 0x0e,
  0x1b, 0x20, 0x2d, 0x2d, 0x3d, 0xd8, 0xf0, 0xd9, 0x57, 0x21, 0xf4, 0xe5,
  0xf8, 0x3d, 0x31, 0x19, 0x2f, 0xf4, 0x28, 0x10, 0xd3, 0x02, 0x0e, 0x84,
  0x8b, 0xfc, 0x10, 0xb8, 0xeb, 0x11, 0xf0, 0xdd, 0xc8, 0xd8, 0x08, 0xbb,
  0xf0, 0xd7, 0x07, 0xe7, 0x1d, 0xd0, 0xfb, 0x07, 0x41, 0xfa, 0x07, 0x1b,
  0xba, 0xf1, 0x81, 0x24, 0x2b, 0xc6, 0xd6, 0x05, 0x19, 0x5d, 0xcf, 0xd0,
  0x31, 0x08, 0x40, 0x40, 0x69, 0x6b, 0x32, 0x2c, 0x0a, 0xb0, 0xad, 0xde,
  0xc9, 0xb8, 0x07, 0xc0, 0x02, 0xe4, 0xb7, 0xda, 0xfa, 0xbc, 0x92, 0xb4,
  0x32, 0xdc, 0xba, 0x1c, 0xc3, 0xeb, 0xf5, 0x96, 0x11, 0xd6, 0x08, 0x04,
  0xb8, 0x1d, 0xa3, 0xfc, 0xdc, 0xd1, 0x49, 0xc0, 0x2c, 0x0d, 0x25, 0xed,
  0x0e, 0x42, 0x40, 0x2b, 0xf0, 0x20, 0x1b, 0x2a, 0xcb, 0x82, 0xb8, 0xbd,
  0xf0, 0xe1, 0xd9, 0x1c, 0x08, 0xf4, 0xcf, 0xf7, 0xc7, 0xdf, 0x13, 0xde,
  0x2b, 0xbc, 0xb7, 0xc1, 0x38, 0x2f, 0x20, 0xea, 0xf6, 0xc4, 0xd2, 0xe8,
  0xab, 0xcf, 0x17, 0x26, 0xe4, 0xe6, 0xd5, 0xfa, 0x0f, 0x01, 0xd2, 0x15,
  0x2f, 0x37, 0x21, 0x10, 0x0a, 0x2b, 0x07, 0x46, 0xf2, 0xc9, 0xfe, 0x14,
  0xca, 0x92, 0x0f, 0x0a, 0x71, 0x0c, 0x08, 0x03, 0xf4, 0xd1, 0x00, 0x12,
  0x06, 0x8e, 0x8b, 0xe6, 0xdc, 0xfb, 0xff, 0x81, 0x12, 0x32, 0x20, 0x44,
  0xe3, 0x1b, 0xee, 0x45, 0xe2, 0xff, 0x0d, 0x1a, 0xf3, 0x32, 0xb7, 0x1a,
  0xc0, 0x1b, 0xd6, 0xcd, 0x39, 0xec, 0xd4, 0x3b, 0x5f, 0x20, 0xd4, 0xb7,
  0xf0, 0x01, 0xf6, 0xcf, 0x17, 0xca, 0xec, 0x50, 0x4e, 0x2a, 0xfc, 0x44,
  0x12, 0xa4, 0xe8, 0xa7, 0x15, 0x29, 0xa9, 0x3b, 0x1f, 0x22, 0xdd, 0x05,
  0xc0, 0xef, 0xe0, 0x1b, 0x05, 0xc2, 0x2d, 0x43, 0xfb, 0x06, 0x26, 0xf2,
  0xf3, 0x0b, 0x19, 0x24, 0x07, 0x31, 0x08, 0xed, 0x34, 0xea, 0xe6, 0xf3,
  0xd4, 0xbd, 0x24, 0xc3, 0x3a, 0x27, 0x21, 0x1b, 0xe0, 0x35, 0xe9, 0xde,
  0x1e, 0xaa, 0xeb, 0xd7, 0x11, 0x09, 0x09, 0xf5, 0x11, 0xe1, 0xcc, 0xd9,
  0x11, 0x14, 0x0e, 0xcb, 0x34, 0xd8, 0xed, 0xd6, 0x20, 0xcc, 0xdc, 0x24,
  0x4e, 0xcb, 0xe7, 0x23, 0xce, 0xe8, 0xce, 0xcd, 0x27, 0x9f, 0xe4, 0x02,
  0xed, 0xca, 0xdf, 0xf8, 0xf7, 0xca, 0x1c, 0x0e, 0xdd, 0x39, 0x9b, 0x30,
  0x2f, 0xb1, 0xe9, 0xf9, 0x1c, 0x1a, 0xb7, 0x09, 0x60, 0x2d, 0x5b, 0x3d,
  0x36, 0xf7, 0x56, 0x38, 0x0b, 0xc6, 0x0f, 0x37, 0xd6, 0xee, 0x35, 0x26,
  0x29, 0xec, 0x10, 0x00, 0xd3, 0xe8, 0xfd, 0xe9, 0x31, 0xa3, 0x00, 0xf5,
  0xdc, 0xaa, 0xed, 0x59, 0x11, 0xc5, 0xd6, 0x4a, 0xbe, 0xe0, 0xea, 0xbc,
  0x09, 0xb7, 0x4b, 0x24, 0x16, 0x5a, 0xfa, 0xd3, 0xde, 0x50, 0x50, 0x22,
  0x33, 0x01, 0x48, 0x11, 0x33, 0xb9, 0x0d, 0xf7, 0xff, 0xc9, 0x10, 0xe9,
  0x23, 0xc2, 0xea, 0xe8, 0x11, 0x2f, 0xbd, 0xed, 0x0e, 0xbc, 0xbf, 0xed,
  0x07, 0x81, 0x05, 0xd4, 0x49, 0x10, 0xa6, 0xb0, 0x05, 0x2b, 0xaa, 0x0f,
  0x2d, 0xd6, 0x0b, 0x06, 0x25, 0x3c, 0xdd, 0xfd, 0x10, 0xf3, 0xdb, 0x4b,
  0x00, 0xfe, 0x2e, 0x3b, 0xde, 0xf0, 0x23, 0x31, 0x07, 0x1c, 0xfb, 0x57,
  0x2b, 0x13, 0x0b, 0xea, 0x13, 0x50, 0x07, 0xf9, 0xf0, 0xb3, 0xb9, 0x2f,
  0x31, 0xef, 0x22, 0x08, 0x46, 0xf4, 0xf7, 0x22, 0x15, 0x18, 0xb6, 0xeb,
  0x2d, 0x81, 0xea, 0x2b, 0xfb, 0x1f, 0xe8, 0x44, 0xfa, 0x28, 0x17, 0x0c,
  0x0e, 0x30, 0x42, 0x53, 0x38, 0x2f, 0xe3, 0x26, 0x1b, 0xe4, 0x25, 0xeb,
  0x4a, 0xd3, 0xed, 0xe9, 0x0a, 0xd3, 0x20, 0xd8, 0xf8, 0xfd, 0xfb, 0x02,
  0x21, 0xf1, 0xc5, 0xff, 0xcc, 0xd6, 0x23, 0xf8, 0xf6, 0x1d, 0x19, 0x0b,
  0x06, 0xb7, 0xb9, 0xe9, 0x28, 0xcd, 0xdc, 0xcb, 0x0c, 0x41, 0x1a, 0x44,
  0x15, 0x58, 0x18, 0x0d, 0x10, 0x0a, 0xe0, 0x25, 0x0d, 0x40, 0xd4, 0xfc,
  0xf9, 0x19, 0x1d, 0xf0, 0x06, 0xed, 0x36, 0xfa, 0x39, 0xc2, 0xce, 0xd4,
  0x04, 0xea, 0xe5, 0xd4, 0xd9, 0xda, 0xb9, 0x19, 0xaf, 0xe0, 0x2e, 0x0d,
  0x05, 0x17, 0xa7, 0x12, 0xf9, 0x01, 0xd9, 0xbf, 0xfc, 0xe8, 0xf9, 0x05,
  0x1a, 0x77, 0x0f, 0xee, 0x23, 0x0f, 0x0d, 0x02, 0x19, 0x2a, 0xff, 0xf4,
  0x17, 0x23, 0xf7, 0x1f, 0x1a, 0xfa, 0x16, 0xfe, 0xb2, 0x3f, 0x2e, 0xe5,
  0xd2, 0xf9, 0x12, 0xdb, 0xe0, 0xee, 0xfb, 0xde, 0xff, 0xd3, 0xed, 0xe9,
  0xb6, 0x6a, 0x56, 0xe2, 0x9f, 0xb6, 0xe5, 0xf3, 0xbb, 0x98, 0xb1, 0x90,
  0x92, 0xa8, 0x9f, 0xce, 0x1f, 0x20, 0x10, 0x1a, 0x0a, 0xf9, 0xff, 0x06,
  0x14, 0x11, 0x1c, 0xf8, 0x0a, 0x18, 0x09, 0x1c, 0xeb, 0x37, 0x40, 0xba,
  0x03, 0xf9, 0xdc, 0xbe, 0xd7, 0xe6, 0xf0, 0x13, 0xe0, 0xd5, 0x36, 0xdf,
  0xa0, 0x42, 0x6c, 0x99, 0xab, 0xb3, 0x10, 0xbe, 0x8c, 0xa6, 0xb8, 0xab,
  0xbc, 0xd0, 0x90, 0xbd, 0xff, 0x1c, 0x0d, 0x06, 0x1e, 0x13, 0x01, 0xd6,
  0xeb, 0x22, 0x0c, 0x11, 0x07, 0x0c, 0x25, 0x11, 0xc8, 0x51, 0x36, 0xca,
  0xd1, 0x17, 0xdb, 0xbf, 0xde, 0x14, 0x0e, 0xf5, 0xe1, 0xe8, 0x2a, 0x0f,
  0xb3, 0x3f, 0x5a, 0xc8, 0xdb, 0xa5, 0xc6, 0xe8, 0xab, 0x8f, 0xbd, 0xb3,
  0xcf, 0x81, 0xaa, 0xa1, 0xfb, 0xd7, 0xcd, 0x30, 0x16, 0xdb, 0x38, 0xf2,
  0x30, 0x06, 0xf6, 0x13, 0xfa, 0x46, 0xf9, 0xfa, 0x2f, 0x09, 0xbc, 0x12,
  0xd5, 0xf6, 0xc9, 0xca, 0x1b, 0xff, 0xfb, 0x26, 0xf6, 0x06, 0xd9, 0xdf,
  0x44, 0x81, 0x89, 0xfc, 0x0c, 0xb6, 0x63, 0xf1, 0x68, 0x08, 0x0f, 0x18,
  0xc9, 0x2c, 0x08, 0x4f, 0x2b, 0xee, 0x0a, 0xfb, 0xf9, 0xec, 0xda, 0x70,
  0x16, 0xf5, 0x2c, 0xf0, 0x09, 0x2c, 0x2c, 0xea, 0x2f, 0xbb, 0xbc, 0xd8,
  0xf9, 0xf5, 0x0e, 0x02, 0x07, 0xf6, 0xc1, 0x4f, 0xfe, 0x18, 0xd6, 0x09,
  0x35, 0xa9, 0xdf, 0xbd, 0xcd, 0xf8, 0xf0, 0x01, 0xf7, 0xda, 0xdc, 0x1e,
  0xd8, 0xf6, 0xaf, 0x31, 0xfe, 0xdc, 0x11, 0x07, 0x11, 0x21, 0xd7, 0x0e,
  0xfb, 0x15, 0x1e, 0xff, 0xf5, 0xff, 0xf0, 0x0d, 0x3d, 0xe5, 0x1d, 0x15,
  0x1e, 0xfc, 0xe2, 0xe0, 0x0a, 0xc3, 0x1f, 0xf2, 0xeb, 0x20, 0x0b, 0x2b,
  0x30, 0xcf, 0xc6, 0xd1, 0xfa, 0x0e, 0x0d, 0xdc, 0x22, 0x27, 0xd9, 0x08,
  0xfd, 0x07, 0xfb, 0xd1, 0xf1, 0x3c, 0x29, 0xd4, 0xe8, 0x04, 0xf3, 0x04,
  0x1c, 0xd9, 0x08, 0x12, 0x0a, 0x0a, 0x15, 0xfe, 0xc9, 0x0a, 0x14, 0xce,
  0xf1, 0x31, 0xd1, 0xbe, 0xd8, 0x04, 0xee, 0xdd, 0x20, 0xf8, 0x1d, 0xef,
  0xf2, 0x71, 0x53, 0xc5, 0x0a, 0xbd, 0x1e, 0xdf, 0xd8, 0xce, 0xc3, 0xe3,
  0xcb, 0xcc, 0xee, 0xd9, 0xe7, 0x2f, 0x0a, 0x2f, 0x02, 0xf9, 0x0b, 0x22,
  0x15, 0x0e, 0x13, 0x07, 0x23, 0x25, 0x0c, 0x00, 0xc4, 0x54, 0x39, 0xfa,
  0xe3, 0x09, 0xef, 0x15, 0xe7, 0xf9, 0x01, 0xd5, 0xfc, 0x08, 0x33, 0x1f,
  0xc6, 0x36, 0x7f, 0xc5, 0xfb, 0x02, 0xf3, 0xd8, 0xb4, 0xb7, 0xc7, 0xd5,
  0xe4, 0xe4, 0xb8, 0x06, 0x1e, 0x38, 0x15, 0x2e, 0x3a, 0xe1, 0xe3, 0x1c,
  0x1a, 0xf2, 0x1b, 0x17, 0x2a, 0xf5, 0x18, 0x06, 0xe9, 0x63, 0x3a, 0xc5,
  0x07, 0x3c, 0xf2, 0xc4, 0xf2, 0xd9, 0x0b, 0xec, 0x11, 0xda, 0x07, 0xff,
  0xa6, 0x53, 0x33, 0xf3, 0xe1, 0x01, 0xe4, 0xe1, 0xb3, 0xdc, 0xe9, 0xba,
  0xed, 0xcb, 0xc8, 0xbb, 0xe4, 0x3c, 0x53, 0x4f, 0x1e, 0x1b, 0xe1, 0x21,
  0x15, 0x00, 0x1e, 0xfa, 0xdb, 0x21, 0x77, 0x47, 0xd6, 0xe7, 0xb7, 0xff,
  0x28, 0x07, 0xfb, 0xe9, 0xc6, 0xe0, 0xb3, 0xf8, 0xf6, 0xbb, 0x0a, 0x0b,
  0xe5, 0xde, 0xa2, 0x21, 0x4f, 0xdb, 0x02, 0x3a, 0xc3, 0x21, 0x0d, 0x0e,
  0x16, 0x25, 0xf0, 0xed, 0x27, 0xdf, 0x33, 0x11, 0x3a, 0x2a, 0x26, 0x3b,
  0xb4, 0x4e, 0xe9, 0x13, 0x6e, 0xff, 0x30, 0x16, 0xb2, 0xb7, 0xf6, 0xef,
  0x33, 0xe7, 0x18, 0x8f, 0xef, 0xbf, 0xe1, 0x02, 0xbb, 0xea, 0x07, 0xd7,
  0x42, 0xa1, 0xb7, 0x02, 0x04, 0xe5, 0x4b, 0x4a, 0x06, 0x0a, 0x22, 0x06,
  0xfb, 0x39, 0xd2, 0xcf, 0x15, 0xf3, 0xe1, 0xee, 0x21, 0x7f, 0x41, 0x29,
  0x20, 0x29, 0x5a, 0x35, 0x50, 0xf3, 0x27, 0x42, 0xd2, 0xc8, 0xbc, 0xfb,
  0x1c, 0xe1, 0x1d, 0xdd, 0xd5, 0xf4, 0xf2, 0xd9, 0xd3, 0xe5, 0x14, 0x20,
  0x43, 0x98, 0xe0, 0x0f, 0x07, 0x89, 0x29, 0xf4, 0x2e, 0xcd, 0xa9, 0x58,
  0x0c, 0x25, 0xe0, 0x3d, 0xf6, 0xbd, 0x00, 0x26, 0x44, 0x4d, 0x20, 0xcd,
  0x05, 0x57, 0x2a, 0x11, 0x2f, 0x23, 0x2e, 0x37, 0xf6, 0x20, 0xd4, 0xb6,
  0xf3, 0x02, 0x38, 0x20, 0x30, 0x48, 0xda, 0x11, 0xd6, 0xc8, 0x28, 0x2f,
  0x38, 0xed, 0xc0, 0xc1, 0xe4, 0xe8, 0x16, 0xcf, 0x08, 0xff, 0xcc, 0x2d,
  0x17, 0x26, 0xe9, 0xf4, 0x0d, 0xf0, 0xee, 0x47, 0x0f, 0x3e, 0x11, 0xc4,
  0xe9, 0x02, 0xef, 0xe3, 0x12, 0xdd, 0x59, 0x29, 0xfc, 0xaf, 0x0a, 0xfc,
  0xfe, 0x12, 0x22, 0xda, 0x17, 0xf9, 0xce, 0xef, 0xd6, 0xce, 0xf6, 0xe5,
  0x38, 0x81, 0xc3, 0xe8, 0xd9, 0xd6, 0xee, 0x18, 0xf2, 0x0e, 0xfd, 0x58,
  0xf4, 0xe4, 0xc7, 0x14, 0xc3, 0xf2, 0x12, 0xfe, 0x5b, 0xcb, 0x1d, 0xc7,
  0xa9, 0xb5, 0x21, 0x29, 0x1a, 0x45, 0xe9, 0xf7, 0x15, 0x10, 0xb7, 0xda,
  0x13, 0xd2, 0xcf, 0x95, 0xae, 0x20, 0x22, 0xfb, 0xea, 0xc0, 0x15, 0xb8,
  0x34, 0xa1, 0x0c, 0x90, 0xff, 0x8c, 0x08, 0x05, 0xe7, 0x08, 0xc7, 0xed,
  0xd6, 0x39, 0x89, 0xf0, 0xb3, 0x19, 0x42, 0x68, 0x16, 0xa7, 0x2a, 0xb4,
  0x09, 0x06, 0xcc, 0xfe, 0xac, 0xec, 0x34, 0x44, 0xd3, 0xcf, 0x1a, 0xf5,
  0xf4, 0xb6, 0x37, 0x02, 0x27, 0xd8, 0x2a, 0x97, 0x34, 0xae, 0xf9, 0x09,
  0xe4, 0x98, 0x25, 0xee, 0x05, 0x4c, 0x0c, 0x30, 0x30, 0x0a, 0xcb, 0x27,
  0xe4, 0x45, 0xb9, 0x33, 0xd0, 0xf1, 0xc3, 0x30, 0xe4, 0xd6, 0xdb, 0xef,
  0x45, 0x09, 0x97, 0xbf, 0x52, 0x54, 0xe8, 0xc3, 0xe8, 0x29, 0xfd, 0x9e,
  0xac, 0xe9, 0x32, 0x9f, 0x28, 0xcd, 0x81, 0x95, 0x09, 0xc7, 0x96, 0x33,
  0x19, 0xb7, 0xcf, 0x39, 0xaf, 0xd8, 0xf9, 0x68, 0xc8, 0xfd, 0x93, 0xc7,
  0xe9, 0xe7, 0xec, 0xe5, 0x21, 0x2a, 0x36, 0x2d, 0x0b, 0xdd, 0x14, 0xe0,
  0x51, 0xbe, 0x25, 0x54, 0x19, 0x68, 0x4f, 0x0c, 0x5a, 0xe8, 0x42, 0x94,
  0xf9, 0x46, 0x95, 0xe8, 0xe7, 0xbf, 0xcf, 0x0e, 0xcf, 0x22, 0xec, 0x49,
  0x1d, 0xc1, 0xef, 0x22, 0xda, 0xd2, 0x4d, 0x0b, 0x98, 0x9d, 0xd8, 0x6b,
  0x39, 0xbd, 0xa9, 0xea, 0x2a, 0x12, 0xea, 0xe5, 0xec, 0x0b, 0x09, 0xd5,
  0x27, 0x0b, 0x1a, 0x2e, 0x1d, 0xcf, 0x10, 0x05, 0xeb, 0xd2, 0xd0, 0xf9,
  0xd2, 0xf7, 0x2e, 0xfa, 0x27, 0xed, 0xc2, 0x07, 0x11, 0xf5, 0xcc, 0xe2,
  0x52, 0x9e, 0x2b, 0x20, 0xf4, 0xdb, 0xfe, 0x4b, 0x27, 0xf9, 0x04, 0x39,
  0x3d, 0x28, 0x09, 0x40, 0xf1, 0xfd, 0xe2, 0xdb, 0x1a, 0x20, 0x05, 0x2c,
  0x1d, 0xf2, 0x0d, 0xfc, 0xf8, 0x15, 0x2c, 0xff, 0xeb, 0xc5, 0xda, 0xff,
  0xdf, 0x9a, 0xbf, 0xe1, 0xf5, 0xbe, 0xf8, 0xe5, 0xc8, 0x0b, 0xfc, 0xf5,
  0x24, 0xe2, 0xaf, 0x0a, 0x1a, 0xe7, 0x59, 0x3b, 0x4b, 0x23, 0x3e, 0x43,
  0x3f, 0x03, 0xc0, 0x2a, 0xfe, 0x0a, 0x24, 0xfa, 0xe1, 0xdf, 0xcc, 0xe6,
  0xe2, 0x24, 0xd1, 0x07, 0xe7, 0x20, 0xd8, 0xeb, 0x02, 0xa0, 0xdf, 0x08,
  0x28, 0xe4, 0xe4, 0xe0, 0xf5, 0xd2, 0xd5, 0x2c, 0xff, 0x08, 0xf0, 0xd4,
  0x39, 0x97, 0xc0, 0x1d, 0x28, 0xf0, 0x13, 0xfe, 0x4f, 0x32, 0x7f, 0x2e,
  0x1f, 0x47, 0x41, 0x2b, 0x13, 0x0b, 0xe1, 0xdd, 0xd8, 0xb5, 0x1d, 0xc0,
  0x31, 0xf4, 0xc7, 0x3e, 0xc5, 0xe6, 0x0b, 0xe1, 0xe3, 0x09, 0x1f, 0xf8,
  0xe7, 0xc8, 0xb5, 0xc4, 0x13, 0xf3, 0x03, 0xde, 0xdd, 0xcb, 0xeb, 0xcb,
  0x04, 0xa8, 0x02, 0xa3, 0xc3, 0xff, 0xc9, 0x0a, 0xa7, 0xb4, 0x08, 0xe6,
  0xba, 0xb9, 0x81, 0xc7, 0x28, 0x17, 0xd5, 0xe2, 0x03, 0x1d, 0xa0, 0xba,
  0xe2, 0x14, 0xc6, 0x25, 0x17, 0xbb, 0x02, 0xd2, 0xed, 0xb7, 0x29, 0xe1,
  0x14, 0x93, 0x3c, 0x3f, 0xda, 0xd6, 0xc4, 0xcd, 0x0f, 0xb4, 0x31, 0x1f,
  0x95, 0x32, 0xf8, 0x9b, 0x99, 0xd8, 0x36, 0xde, 0xda, 0x17, 0xd6, 0xdb,
  0xd5, 0x4f, 0x0f, 0xda, 0xd1, 0x36, 0xcf, 0x14, 0xcd, 0xf1, 0xb5, 0x94,
  0x1c, 0xcc, 0x4c, 0xb5, 0x3c, 0xd8, 0x1c, 0xd6, 0xdc, 0x18, 0xfe, 0xf3,
  0xc5, 0xea, 0x28, 0xbc, 0xc4, 0x03, 0xef, 0xaf, 0xc7, 0x0d, 0xcc, 0x16,
  0xb6, 0xee, 0x32, 0x13, 0xea, 0xf4, 0x24, 0x14, 0xd9, 0x36, 0xc0, 0xf8,
  0x23, 0x58, 0x65, 0xf3, 0x9f, 0x0e, 0xe4, 0xcd, 0xe0, 0xa7, 0xfe, 0xa4,
  0xd1, 0x9a, 0x9a, 0xd1, 0xad, 0xc2, 0x30, 0x94, 0x9f, 0xcb, 0x31, 0xd2,
  0xde, 0x8e, 0xd8, 0x16, 0xc2, 0x93, 0xba, 0xa5, 0xd6, 0xca, 0xf5, 0xad,
  0xc4, 0xe0, 0xd7, 0xb4, 0x2d, 0x20, 0x03, 0x34, 0xf1, 0xd8, 0x0c, 0xb1,
  0xe6, 0x32, 0xb4, 0x00, 0x2f, 0xef, 0x26, 0xd6, 0x05, 0x41, 0xe7, 0x28,
  0x03, 0xdc, 0xfa, 0x02, 0x20, 0x1c, 0xee, 0xfe, 0x1d, 0x4a, 0x0f, 0x29,
  0x12, 0x02, 0xb9, 0x02, 0xc9, 0xf1, 0x16, 0x02, 0x00, 0x14, 0x51, 0xfb,
  0xc3, 0x02, 0xf5, 0x51, 0xe2, 0xd7, 0xdd, 0x5c, 0x3e, 0x00, 0x0f, 0x22,
  0xec, 0xfd, 0xfe, 0x16, 0xe7, 0xf8, 0x03, 0x7f, 0xe2, 0xc6, 0xe9, 0x2e,
  0x17, 0xba, 0x2f, 0x0f, 0x49, 0x00, 0x52, 0x0b, 0xc8, 0x35, 0x16, 0xa4,
  0xe2, 0x3f, 0x14, 0x1f, 0xd1, 0xff, 0xce, 0x24, 0xc2, 0x13, 0x05, 0xd0,
  0x1e, 0x40, 0x1b, 0x5a, 0xc3, 0xe2, 0x34, 0x4a, 0xe4, 0x0b, 0x0c, 0x09,
  0x03, 0x4f, 0xd2, 0xec, 0x4a, 0x0f, 0x0f, 0x20, 0x2b, 0xba, 0x0a, 0xba,
  0x37, 0x4c, 0x7f, 0xda, 0x06, 0x19, 0x2a, 0x3b, 0xe5, 0xde, 0xb6, 0xd4,
  0xc8, 0xe2, 0xc3, 0xe8, 0x04, 0x05, 0xf1, 0xea, 0xce, 0xdf, 0xcf, 0x0f,
  0x02, 0xe8, 0xd5, 0xc3, 0xdd, 0xfb, 0xcf, 0xce, 0x0f, 0xd5, 0x2e, 0x06,
  0xf4, 0x00, 0x4f, 0x1e, 0xc3, 0x11, 0x1a, 0x06, 0x18, 0x22, 0x26, 0xc9,
  0xe2, 0xff, 0x01, 0x3d, 0x47, 0xc8, 0x53, 0xe2, 0x31, 0xe8, 0x08, 0xe4,
  0xd8, 0xfe, 0xee, 0xea, 0xde, 0xcb, 0x12, 0x17, 0x9e, 0xcf, 0xe5, 0xdf,
  0x1c, 0x9c, 0xb3, 0x29, 0xfc, 0xe2, 0xd4, 0xe8, 0xf4, 0x10, 0xe4, 0xf6,
  0xc8, 0xec, 0xf6, 0x00, 0xd5, 0xfc, 0x21, 0x36, 0xfe, 0x15, 0x18, 0x1a,
  0xed, 0xf8, 0x27, 0xe9, 0x14, 0x0c, 0xf1, 0x67, 0x1e, 0xe6, 0x04, 0xb4,
  0x13, 0xf0, 0xec, 0xed, 0x06, 0xf5, 0xd3, 0xc1, 0x1e, 0x09, 0xdb, 0x02,
  0xfb, 0xbe, 0x12, 0xc3, 0x13, 0x8c, 0x23, 0x0a, 0xfe, 0x07, 0xea, 0x1a,
  0xc4, 0xeb, 0xab, 0xea, 0xe6, 0xed, 0xc9, 0x42, 0x0d, 0xe3, 0xee, 0x15,
  0x25, 0xff, 0x32, 0xfc, 0xe4, 0x36, 0xe7, 0x39, 0xf6, 0xd9, 0x22, 0xde,
  0xf7, 0x03, 0xeb, 0xf7, 0xf4, 0x2a, 0x05, 0xd9, 0x05, 0x0b, 0x15, 0xf1,
  0x35, 0xca, 0xff, 0x44, 0xf0, 0xf6, 0x36, 0x42, 0x21, 0x23, 0xd3, 0x14,
  0x19, 0x40, 0x2e, 0x10, 0x0d, 0xe0, 0xcd, 0xe1, 0x17, 0xd6, 0x14, 0x06,
  0xfc, 0x09, 0x2c, 0x28, 0x21, 0x09, 0x19, 0x13, 0xef, 0xc3, 0x00, 0x0c,
  0xd8, 0x1a, 0xee, 0x24, 0x10, 0xe2, 0xc8, 0x18, 0x23, 0x31, 0x2b, 0x16,
  0x2d, 0x99, 0xd2, 0x0c, 0xf5, 0xdb, 0xfc, 0x1e, 0x4f, 0x04, 0xbf, 0x3d,
  0x0a, 0xe6, 0xf2, 0xc6, 0xf6, 0xf8, 0xea, 0x0f, 0xee, 0x0c, 0xe3, 0xf1,
  0x1b, 0x0d, 0xf8, 0x01, 0x29, 0x2d, 0x06, 0xd9, 0xdf, 0xba, 0x03, 0xab,
  0xf0, 0xc5, 0x10, 0x08, 0xe5, 0xe5, 0x07, 0x01, 0x14, 0x1a, 0x15, 0xe1,
  0x08, 0x81, 0x16, 0x1f, 0xca, 0xd8, 0x3f, 0xe9, 0x32, 0x0e, 0x37, 0xfe,
  0x27, 0x20, 0xce, 0x18, 0x24, 0x29, 0x4a, 0x23, 0x31, 0x35, 0x1f, 0xbc,
  0x2c, 0x46, 0x47, 0x02, 0x1a, 0xe4, 0x2a, 0x36, 0xe5, 0x86, 0xf2, 0x48,
  0xec, 0x20, 0xbd, 0xc5, 0xcb, 0x0e, 0xb5, 0xde, 0xc9, 0x2b, 0xcd, 0xe2,
  0x4e, 0x83, 0x04, 0xd8, 0x64, 0x0a, 0x07, 0x18, 0x68, 0x23, 0x15, 0x5f,
  0xcc, 0x77, 0xca, 0xf8, 0xd2, 0x44, 0xd3, 0xf7, 0x43, 0x17, 0xfd, 0x2f,
  0x02, 0xcd, 0x2e, 0x28, 0x75, 0xb4, 0x55, 0x4a, 0xd4, 0x8c, 0xc3, 0x25,
  0x19, 0x22, 0xd7, 0xc9, 0x1c, 0xf8, 0x1e, 0xce, 0x1b, 0x10, 0xbe, 0xb5,
  0x37, 0xdc, 0xa0, 0x49, 0xed, 0x01, 0x08, 0x1d, 0x3a, 0xe8, 0xe0, 0x2f,
  0xd4, 0x0f, 0xa7, 0x30, 0x07, 0xc8, 0x00, 0x6a, 0x52, 0xf0, 0xd3, 0xcb,
  0xe2, 0x17, 0x1b, 0x03, 0x34, 0x16, 0x39, 0x30, 0x11, 0xa1, 0xc4, 0xa3,
  0x55, 0xc6, 0xb6, 0xcd, 0xe7, 0x31, 0x1c, 0xd4, 0xf9, 0x38, 0xca, 0x24,
  0x32, 0xaa, 0xd6, 0x14, 0x2b, 0x81, 0x2b, 0xee, 0x0e, 0xc3, 0x13, 0x36,
  0xe6, 0xb5, 0xa5, 0x3e, 0xa5, 0x9b, 0xc2, 0x4b, 0x32, 0xdc, 0xba, 0xf7,
  0x8d, 0xe6, 0xa6, 0x15, 0x2c, 0xf0, 0x3f, 0x2d, 0x3f, 0xef, 0x06, 0xf1,
  0xcb, 0x54, 0xa6, 0xbf, 0x95, 0x32, 0x26, 0x6b, 0xe8, 0xae, 0x20, 0xe7,
  0xff, 0xca, 0x0a, 0xf2, 0x08, 0xdd, 0x02, 0x51, 0xd6, 0xe5, 0x03, 0xb1,
  0x1f, 0xbd, 0xea, 0x04, 0xe7, 0xd8, 0xcd, 0x23, 0x01, 0x13, 0x2d, 0x34,
  0x19, 0x06, 0x29, 0x4f, 0x1b, 0x9f, 0xf7, 0xc8, 0xaa, 0xce, 0x0c, 0xb3,
  0x38, 0xc0, 0x49, 0x16, 0x00, 0x0d, 0x37, 0x81, 0xcd, 0x1b, 0xf7, 0xe1,
  0xf1, 0xdc, 0xad, 0x16, 0xb9, 0xe2, 0xc0, 0x94, 0xc6, 0x21, 0x1b, 0x05,
  0xcf, 0xc3, 0x36, 0x39, 0x14, 0x0e, 0xb4, 0x23, 0x4e, 0xf6, 0xe1, 0x2d,
  0x0c, 0x1b, 0xe7, 0x18, 0x24, 0x18, 0xe6, 0x00, 0x25, 0xdb, 0xac, 0x1f,
  0xa1, 0x94, 0x1e, 0xf3, 0xad, 0x03, 0x1b, 0xeb, 0x01, 0xc1, 0x2d, 0x1b,
  0xc2, 0xf7, 0xdd, 0xc6, 0x44, 0xc6, 0xbf, 0xd6, 0xbe, 0x3d, 0xfe, 0xa7,
  0x02, 0xea, 0xce, 0xee, 0xe9, 0x24, 0x11, 0x15, 0x2d, 0xf8, 0xfb, 0xe3,
  0xe2, 0x41, 0x01, 0x3d, 0xf1, 0x18, 0x46, 0xfe, 0xe1, 0xd3, 0x1c, 0xd9,
  0xe0, 0xd0, 0xe5, 0xa3, 0xf0, 0xca, 0xee, 0x08, 0xf7, 0x08, 0xd7, 0x1a,
  0x23, 0xbe, 0xa1, 0xd9, 0xc7, 0x81, 0x23, 0x0f, 0xc8, 0xf7, 0x10, 0x18,
  0x02, 0x2f, 0xf9, 0xdd, 0x18, 0x04, 0x47, 0xf8, 0x1e, 0xeb, 0x2c, 0x28,
  0xbc, 0xd3, 0x43, 0xfb, 0x2a, 0xf6, 0x42, 0x24, 0xe6, 0xda, 0xc7, 0xb8,
  0xfe, 0xc0, 0xe4, 0xdf, 0xf9, 0x2a, 0xc1, 0xce, 0x17, 0xbc, 0x3b, 0x1c,
  0x33, 0xe8, 0x13, 0x0c, 0xef, 0xa6, 0x37, 0x6e, 0x3a, 0x16, 0xf4, 0xd6,
  0x20, 0x2d, 0xaa, 0xe0, 0x07, 0x1e, 0x21, 0xff, 0x1e, 0x3e, 0x19, 0x19,
  0xbd, 0x05, 0xf2, 0x3e, 0x16, 0x07, 0x09, 0x42, 0xfd, 0x14, 0x10, 0xae,
  0xed, 0x03, 0xe5, 0xef, 0xc6, 0x1f, 0xd4, 0xcf, 0x02, 0xbc, 0x15, 0x02,
  0x2c, 0xf8, 0x00, 0x36, 0xe1, 0xa8, 0x30, 0x12, 0xff, 0xce, 0xf2, 0x05,
  0xdc, 0xf6, 0xfe, 0x24, 0xd6, 0x54, 0x32, 0xef, 0xee, 0xd3, 0xee, 0x04,
  0xe1, 0xdd, 0xf8, 0x0e, 0x0e, 0x10, 0xd6, 0x22, 0xfe, 0x4f, 0xfa, 0xc4,
  0x0b, 0xff, 0x15, 0x1b, 0xd3, 0xe2, 0xf8, 0x01, 0xc9, 0xbc, 0xbd, 0x07,
  0xce, 0x42, 0x69, 0xbb, 0x23, 0xd0, 0x03, 0xc0, 0x08, 0x0b, 0xe4, 0xf1,
  0x00, 0xa5, 0x17, 0xeb, 0xfe, 0x5b, 0xe5, 0x14, 0xda, 0xfb, 0xe9, 0xfe,
  0xf3, 0xe0, 0x3a, 0xcf, 0x40, 0xc4, 0x08, 0xfc, 0xdb, 0x47, 0x19, 0x03,
  0xfa, 0xb9, 0x30, 0x0e, 0xaa, 0x0c, 0x05, 0xcb, 0xc5, 0x0b, 0xf7, 0x10,
  0xf1, 0x55, 0x3d, 0xba, 0xbb, 0x0c, 0xd2, 0xf4, 0xc7, 0xd4, 0xb7, 0xe3,
  0xe3, 0x0d, 0x27, 0xda, 0xdb, 0x70, 0x1f, 0x19, 0xe5, 0x11, 0xf4, 0x13,
  0xed, 0x16, 0xda, 0x10, 0xfd, 0x15, 0xf5, 0xcb, 0xcd, 0x25, 0xdb, 0xfc,
  0xe4, 0x28, 0xed, 0xff, 0xbe, 0x04, 0xea, 0x07, 0xd1, 0xa3, 0x11, 0xf7,
  0x99, 0x7f, 0x56, 0xfc, 0xbb, 0x00, 0xbb, 0xed, 0xba, 0x01, 0xbe, 0xe1,
  0xda, 0xc0, 0xdf, 0xe1, 0x2e, 0xf7, 0xff, 0xff, 0x04, 0x00, 0x00, 0x00,
  0x40, 0x00, 0x00, 0x00, 0x08, 0x00, 0x00, 0x00, 0x0d, 0x03, 0x00, 0x00,
  0x42, 0x03, 0x00, 0x00, 0x18, 0xf6, 0xff, 0xff, 0x06, 0xfc, 0xff, 0xff,
  0xcf, 0x00, 0x00, 0x00, 0xc8, 0xfe, 0xff, 0xff, 0x37, 0xf6, 0xff, 0xff,
  0x45, 0x00, 0x00, 0x00, 0x13, 0x00, 0x00, 0x00, 0x09, 0x00, 0x00, 0x00,
  0xf6, 0x00, 0x00, 0x00, 0x58, 0xff, 0xff, 0xff, 0xaf, 0x00, 0x00, 0x00,
  0x24, 0x00, 0x00, 0x00, 0x5c, 0x00, 0x00, 0x00, 0x7a, 0xf7, 0xff, 0xff,
  0x04, 0x00, 0x00, 0x00, 0x80, 0x04, 0x00, 0x00, 0x26, 0xc7, 0xe5, 0x1e,
  0xd1, 0xa0, 0x04, 0xcd, 0x18, 0xef, 0xe2, 0x3a, 0xd2, 0xdd, 0xe7, 0x0f,
  0x02, 0x30, 0xec, 0x3a, 0xf8, 0x92, 0xc9, 0xec, 0xe0, 0x28, 0xdd, 0x37,
  0xdb, 0xac, 0xfd, 0xc2, 0xdb, 0x19, 0x11, 0x19, 0xf4, 0xbd, 0xd5, 0xb5,
  0x2d, 0x1d, 0xd5, 0x16, 0xb2, 0x81, 0xf6, 0x15, 0x1e, 0xde, 0x0d, 0x3e,
  0xba, 0xd8, 0x0f, 0xd0, 0xfe, 0xb5, 0xcb, 0xe3, 0xad, 0xdb, 0xe8, 0x0a,
  0x35, 0x06, 0x02, 0x2a, 0x17, 0x8d, 0xf6, 0xde, 0xc5, 0x0c, 0xe6, 0xab,
  0x34, 0x05, 0xdd, 0x09, 0xa7, 0xec, 0xdc, 0xd9, 0xfe, 0xd2, 0xcc, 0x2e,
  0xc7, 0x9c, 0xc3, 0x81, 0xdb, 0xf1, 0xc8, 0xba, 0xf3, 0xa4, 0xe9, 0xd5,
  0x18, 0xec, 0xe8, 0x0a, 0x94, 0x9c, 0xe4, 0xc6, 0x08, 0xe8, 0xfa, 0x13,
  0xbf, 0xc6, 0xc3, 0x9d, 0xd1, 0xfe, 0xd5, 0xf1, 0xb7, 0xad, 0xe1, 0x02,
  0xc1, 0xbe, 0x1a, 0x02, 0xc9, 0xfc, 0x1e, 0xbe, 0xea, 0x2e, 0x0b, 0xda,
  0xa1, 0x91, 0x09, 0xa7, 0x27, 0x2c, 0xd5, 0xdb, 0xed, 0xfa, 0x3f, 0x0e,
  0xf6, 0xf1, 0xe5, 0xd9, 0x9c, 0x13, 0xf7, 0xe4, 0x3d, 0xee, 0x11, 0x49,
  0xba, 0x9e, 0x2b, 0xcd, 0xc1, 0xa5, 0xc1, 0xb8, 0xa1, 0xa5, 0x58, 0xb0,
  0xfe, 0x18, 0x12, 0x27, 0xa5, 0x14, 0x43, 0x02, 0xdf, 0xf7, 0x37, 0x41,
  0x9b, 0xcb, 0x08, 0xaa, 0x0e, 0xd7, 0xf1, 0xfa, 0xe6, 0xa8, 0x39, 0xa0,
  0xdd, 0x0d, 0x39, 0x40, 0xcd, 0xc8, 0x22, 0xb5, 0xe3, 0xbb, 0xbe, 0x4f,
  0x96, 0xac, 0xcd, 0x81, 0xff, 0xf6, 0x1a, 0x0c, 0x66, 0xbb, 0xd2, 0x47,
  0x10, 0x34, 0x09, 0x0d, 0x3a, 0xde, 0xc5, 0xf6, 0xd9, 0x06, 0x3f, 0xd0,
  0x37, 0x0c, 0x44, 0x3d, 0x7f, 0xe5, 0x4b, 0xe2, 0x26, 0xf6, 0x10, 0xc7,
  0x4f, 0x69, 0xf5, 0xd3, 0xb9, 0xbe, 0xe9, 0x3f, 0xea, 0x13, 0xd2, 0x05,
  0xb6, 0x32, 0x36, 0xa5, 0x64, 0xdc, 0x3f, 0x35, 0xd8, 0x5e, 0x19, 0xd3,
  0x41, 0x03, 0x31, 0x24, 0x37, 0x24, 0x3e, 0x01, 0x23, 0xe2, 0xc7, 0xa5,
  0x20, 0x01, 0x01, 0x09, 0x14, 0xe9, 0xec, 0xe7, 0x3c, 0xa2, 0x5c, 0xff,
  0x39, 0x13, 0xfc, 0x07, 0xcb, 0x09, 0x0c, 0x1e, 0x05, 0xfa, 0x26, 0xa8,
  0xf2, 0xd3, 0xe9, 0x01, 0xc9, 0xa1, 0x26, 0x2f, 0x0c, 0x32, 0x3d, 0x1c,
  0xd1, 0xb0, 0x2c, 0x0d, 0x48, 0xd7, 0x12, 0x34, 0x1d, 0x81, 0xde, 0xcf,
  0x14, 0xf9, 0x1f, 0xa3, 0x18, 0xbf, 0x47, 0x4b, 0x3a, 0x51, 0x06, 0x2e,
  0xeb, 0x8a, 0x1a, 0xc9, 0xdd, 0x13, 0xe3, 0xf5, 0x1a, 0xd1, 0xed, 0xc6,
  0xff, 0x3f, 0xef, 0xc2, 0x57, 0x8c, 0xb6, 0xfb, 0x36, 0x2a, 0x31, 0x37,
  0x0b, 0x1c, 0xf8, 0xfc, 0xe7, 0x0d, 0xff, 0x02, 0xd4, 0x0e, 0xda, 0x02,
  0xcf, 0xc4, 0xb4, 0xdd, 0x03, 0xa2, 0xfd, 0xdf, 0xdc, 0xff, 0x7f, 0xed,
  0xfd, 0xf2, 0x19, 0x1d, 0xe5, 0xd8, 0xe1, 0xf7, 0x00, 0xdb, 0x14, 0x04,
  0xf1, 0xa4, 0xff, 0xde, 0xcf, 0xfc, 0xd3, 0x13, 0x46, 0x15, 0x15, 0x12,
  0x27, 0x01, 0x24, 0xd8, 0xf9, 0xfa, 0x0a, 0xe1, 0x11, 0xda, 0xf7, 0x1c,
  0xcb, 0xdc, 0xd4, 0xed, 0xce, 0x0e, 0x19, 0xb9, 0xd4, 0x0b, 0xde, 0x15,
  0x18, 0x3b, 0xf9, 0xf6, 0xdc, 0x19, 0x3b, 0xc3, 0x17, 0xf3, 0x58, 0x24,
  0xde, 0xf8, 0x4b, 0x07, 0x47, 0x5f, 0x30, 0xf8, 0xca, 0xfd, 0x35, 0xbb,
  0xd4, 0xfe, 0xe1, 0x1d, 0x13, 0xaf, 0x20, 0xee, 0xc6, 0x03, 0x2b, 0x21,
  0x1e, 0x0d, 0xc1, 0xec, 0xcb, 0xcd, 0xf4, 0xc7, 0x2c, 0xe5, 0xd1, 0xe0,
  0xcb, 0x81, 0xaf, 0xd9, 0x24, 0xbe, 0xd6, 0x1d, 0x0f, 0xe5, 0x24, 0xf9,
  0xd8, 0x1a, 0xb7, 0xd3, 0x27, 0xb7, 0xf1, 0xff, 0x03, 0x12, 0x37, 0xed,
  0xa9, 0x68, 0x6f, 0x34, 0x0b, 0xda, 0xf4, 0x04, 0x0e, 0x0f, 0x31, 0x04,
  0xf8, 0x2e, 0xde, 0x3d, 0x68, 0x4e, 0x34, 0x2d, 0x37, 0xb7, 0xe1, 0x23,
  0x1d, 0x2c, 0x38, 0xcf, 0x2f, 0xce, 0xc8, 0x3b, 0xf4, 0x34, 0x27, 0xfa,
  0x31, 0x2f, 0x37, 0x21, 0xdb, 0x3e, 0x57, 0x73, 0x27, 0xc5, 0xe9, 0xe1,
  0xf8, 0x56, 0xee, 0xaf, 0xb3, 0xcd, 0xdd, 0xb5, 0xaf, 0x2e, 0xf5, 0xea,
  0xb5, 0x28, 0x02, 0x6f, 0x08, 0x01, 0x7f, 0x58, 0x2f, 0xfa, 0xf1, 0x03,
  0xc3, 0xe1, 0xee, 0xdc, 0xe2, 0x32, 0xe1, 0x3b, 0xd3, 0x8f, 0x1f, 0xb6,
  0x09, 0xee, 0xc9, 0x7f, 0xfc, 0x19, 0xea, 0xf3, 0x45, 0xe5, 0xd5, 0x22,
  0xdb, 0xd2, 0x0e, 0xba, 0x44, 0x26, 0xf3, 0x2d, 0x10, 0xcb, 0x27, 0xbe,
  0x03, 0x50, 0xdc, 0x27, 0x4d, 0xab, 0xfc, 0xe2, 0x04, 0xf2, 0x09, 0x23,
  0x0b, 0xfd, 0xef, 0xb7, 0xd6, 0x08, 0x0e, 0xe6, 0xe8, 0xb0, 0xef, 0x1f,
  0xf7, 0xdf, 0xce, 0x2f, 0x15, 0xd2, 0x22, 0x26, 0x6f, 0xf5, 0x4a, 0xf2,
  0x51, 0xbc, 0x11, 0xe3, 0xc1, 0x1e, 0x04, 0xe6, 0x01, 0x83, 0xe4, 0xd6,
  0x16, 0xed, 0xfd, 0xca, 0xc2, 0x90, 0xb9, 0x25, 0x0f, 0xcc, 0xeb, 0x3e,
  0x2b, 0xb1, 0xc4, 0x31, 0x1a, 0x02, 0xa8, 0xd2, 0x19, 0x81, 0xb2, 0xc9,
  0x01, 0x06, 0xff, 0x13, 0xd1, 0xd9, 0xb5, 0xf4, 0x21, 0x37, 0x53, 0x15,
  0x2b, 0x8d, 0x08, 0x11, 0x20, 0xd2, 0xc9, 0x18, 0x10, 0xe0, 0xc6, 0x07,
  0x0c, 0xf9, 0x38, 0xd9, 0xe3, 0xa0, 0xf0, 0x33, 0xf0, 0x29, 0x45, 0x32,
  0x01, 0x29, 0x03, 0x37, 0xff, 0xee, 0x11, 0xe0, 0x31, 0xe3, 0x37, 0xcc,
  0xd4, 0x26, 0xfc, 0xe9, 0xfa, 0xcc, 0x15, 0xd2, 0x7f, 0x1b, 0x5c, 0xdb,
  0xea, 0xff, 0xf2, 0xee, 0xef, 0x10, 0xd4, 0x10, 0xaa, 0x03, 0x29, 0xee,
  0xe6, 0x28, 0xf3, 0xbd, 0x02, 0xc4, 0xf0, 0xdd, 0xd7, 0x2c, 0x17, 0xdf,
  0x28, 0xfb, 0xd3, 0x4a, 0xcf, 0xe0, 0xb8, 0xf6, 0xc1, 0xb9, 0xd6, 0xa7,
  0xd7, 0x02, 0xd0, 0x25, 0x10, 0x9d, 0x10, 0x30, 0x3a, 0x2c, 0x3a, 0xbf,
  0x2c, 0xae, 0xd9, 0xe1, 0x28, 0xc4, 0xda, 0x3d, 0xf1, 0xc6, 0x0c, 0x31,
  0x1b, 0xe2, 0x12, 0xf2, 0x3c, 0xda, 0xb4, 0x2b, 0xaf, 0xfb, 0x22, 0xee,
  0x1e, 0x0d, 0x30, 0xef, 0x08, 0x37, 0xd0, 0x2e, 0xc9, 0xce, 0x0a, 0xbe,
  0x14, 0xcb, 0xc6, 0x03, 0x15, 0xba, 0xc2, 0x3c, 0xc5, 0x4d, 0x3a, 0x02,
  0xe4, 0xad, 0xe8, 0x11, 0x1c, 0xe3, 0xf9, 0x1e, 0xd3, 0xb2, 0x29, 0xd3,
  0xe0, 0x24, 0xfd, 0x0a, 0x21, 0x81, 0x24, 0xd4, 0x3a, 0x0a, 0x07, 0x0b,
  0xe4, 0xda, 0xf4, 0x1e, 0x06, 0x04, 0xca, 0x01, 0xf4, 0x14, 0x2c, 0x29,
  0x28, 0xc2, 0xec, 0x24, 0x07, 0xae, 0xf6, 0xe0, 0x07, 0xf2, 0x23, 0x0d,
  0x26, 0xa9, 0xfd, 0xa5, 0xff, 0xf8, 0x25, 0x0a, 0x03, 0xe7, 0xb2, 0xeb,
  0xe6, 0xc3, 0x23, 0xf8, 0xb1, 0x16, 0x0b, 0xee, 0x0a, 0x1d, 0xec, 0x38,
  0x30, 0x81, 0xe8, 0xff, 0xcc, 0xc8, 0xc6, 0xfa, 0xf6, 0xc5, 0xed, 0xbb,
  0xb5, 0xe1, 0xdb, 0xd2, 0x20, 0xe6, 0xfd, 0xee, 0x33, 0xbb, 0x26, 0xe8,
  0x51, 0xed, 0xea, 0xb0, 0x3a, 0x31, 0x1a, 0x02, 0x44, 0xdd, 0x0a, 0xc3,
  0xed, 0x30, 0xd1, 0x0a, 0x58, 0x88, 0x1a, 0x74, 0x5f, 0xd5, 0x61, 0x5b,
  0x29, 0xac, 0x08, 0x9c, 0x14, 0x15, 0x97, 0x37, 0x56, 0x81, 0xba, 0x01,
  0xa3, 0x50, 0x0e, 0x00, 0x07, 0xeb, 0xfc, 0xe2, 0xac, 0xd7, 0x41, 0xf2,
  0x2e, 0xd7, 0x27, 0xc9, 0x34, 0x19, 0xe5, 0x68, 0x10, 0xec, 0xed, 0xf1,
  0x22, 0xdf, 0x4f, 0x21, 0x59, 0xc8, 0xc2, 0x46, 0xba, 0x71, 0x44, 0x17,
  0x47, 0xcb, 0xeb, 0xd0, 0xde, 0xd2, 0x19, 0x01, 0x10, 0xe0, 0x0b, 0x23,
  0xef, 0xc9, 0x0c, 0xde, 0x29, 0x0f, 0xc2, 0x1b, 0x2a, 0xf3, 0x1d, 0xde,
  0x7f, 0xdd, 0x0e, 0x58, 0x03, 0xcc, 0x22, 0x12, 0x0b, 0xf3, 0x36, 0xf3,
  0xc0, 0xd5, 0xc4, 0xe9, 0xd4, 0x18, 0xa4, 0xd8, 0x0b, 0x57, 0xf1, 0xe9,
  0xe9, 0xc5, 0x1a, 0xec, 0x0a, 0xcc, 0xd0, 0x13, 0xf4, 0xfc, 0xd1, 0x02,
  0xd0, 0xeb, 0x0e, 0x0b, 0x0c, 0xca, 0xe1, 0x0d, 0x37, 0xde, 0x39, 0xdd,
  0x5b, 0x81, 0x3a, 0xc6, 0x19, 0xfd, 0xde, 0x43, 0xd0, 0xb9, 0xc3, 0xe8,
  0xd4, 0x15, 0xa8, 0xe6, 0x12, 0xcf, 0xb3, 0xd0, 0x69, 0xf8, 0xf1, 0x45,
  0xec, 0xe3, 0x4c, 0x20, 0x53, 0xe0, 0xee, 0xff, 0xca, 0xad, 0xf0, 0xbc,
  0x10, 0xe0, 0x52, 0x5d, 0x34, 0x4f, 0x52, 0x3d, 0xf4, 0x46, 0x3c, 0x99,
  0x5d, 0xb5, 0x11, 0xe1, 0xd6, 0xe1, 0x27, 0x3c, 0xb9, 0x1c, 0x28, 0xc6,
  0xf0, 0xf5, 0xa9, 0xf0, 0xf9, 0xce, 0xf9, 0x7d, 0x06, 0xfc, 0xff, 0xff,
  0x04, 0x00, 0x00, 0x00, 0x20, 0x00, 0x00, 0x00, 0x00, 0x00, 0x00, 0x00,
  0x1c, 0x00, 0x00, 0x00, 0x7b, 0xff, 0xff, 0xff, 0x10, 0x00, 0x00, 0x00,
  0x6f, 0xff, 0xff, 0xff, 0xd9, 0xf1, 0xff, 0xff, 0xe9, 0xfd, 0xff, 0xff,
  0xd3, 0xfe, 0xff, 0xff, 0x32, 0xfc, 0xff, 0xff, 0x04, 0x00, 0x00, 0x00,
  0x48, 0x00, 0x00, 0x00, 0x6d, 0x1c, 0x31, 0x18, 0xcf, 0x71, 0x7f, 0xd8,
  0x77, 0x55, 0x19, 0x12, 0x7f, 0x1b, 0x05, 0x5e, 0x3a, 0x23, 0x0f, 0xd0,
  0x2d, 0x6b, 0x93, 0x48, 0x56, 0x81, 0x0f, 0x0c, 0xfc, 0x7f, 0x63, 0xdc,
  0x6d, 0x33, 0x63, 0xea, 0xe6, 0xf8, 0x3e, 0x69, 0xdb, 0xd7, 0x7f, 0xa3,
  0xbd, 0xdc, 0xe5, 0x42, 0x4a, 0x7f, 0x53, 0x01, 0x15, 0x7c, 0xf2, 0x81,
  0xec, 0x68, 0x14, 0x73, 0xd4, 0x21, 0xad, 0x12, 0x66, 0x81, 0xae, 0x31,
  0xe7, 0x91, 0xde, 0x25, 0x86, 0xfc, 0xff, 0xff, 0x04, 0x00, 0x00, 0x00,
  0x08, 0x00, 0x00, 0x00, 0xff, 0xff, 0xff, 0xff, 0x40, 0x05, 0x00, 0x00,
  0x9a, 0xfc, 0xff, 0xff, 0x04, 0x00, 0x00, 0x00, 0x04, 0x00, 0x00, 0x00,
  0x01, 0x00, 0x00, 0x00, 0xaa, 0xfc, 0xff, 0xff, 0x04, 0x00, 0x00, 0x00,
  0x04, 0x00, 0x00, 0x00, 0x2a, 0x00, 0x00, 0x00, 0xba, 0xfc, 0xff, 0xff,
  0x04, 0x00, 0x00, 0x00, 0x04, 0x00, 0x00, 0x00, 0x31, 0x00, 0x00, 0x00,
  0xca, 0xfc, 0xff, 0xff, 0x04, 0x00, 0x00, 0x00, 0x04, 0x00, 0x00, 0x00,
  0x01, 0x00, 0x00, 0x00, 0xda, 0xfc, 0xff, 0xff, 0x04, 0x00, 0x00, 0x00,
  0x04, 0x00, 0x00, 0x00, 0x00, 0x00, 0x00, 0x00, 0x34, 0xe9, 0xff, 0xff,
  0x38, 0xe9, 0xff, 0xff, 0x0f, 0x00, 0x00, 0x00, 0x4d, 0x4c, 0x49, 0x52,
  0x20, 0x43, 0x6f, 0x6e, 0x76, 0x65, 0x72, 0x74, 0x65, 0x64, 0x2e, 0x00,
  0x01, 0x00, 0x00, 0x00, 0x14, 0x00, 0x00, 0x00, 0x00, 0x00, 0x0e, 0x00,
  0x18, 0x00, 0x14, 0x00, 0x10, 0x00, 0x0c, 0x00, 0x08, 0x00, 0x04, 0x00,
  0x0e, 0x00, 0x00, 0x00, 0x14, 0x00, 0x00, 0x00, 0x1c, 0x00, 0x00, 0x00,
  0xbc, 0x03, 0x00, 0x00, 0xc0, 0x03, 0x00, 0x00, 0xc4, 0x03, 0x00, 0x00,
  0x04, 0x00, 0x00, 0x00, 0x6d, 0x61, 0x69, 0x6e, 0x00, 0x00, 0x00, 0x00,
  0x0f, 0x00, 0x00, 0x00, 0x84, 0x03, 0x00, 0x00, 0x3c, 0x03, 0x00, 0x00,
  0xdc, 0x02, 0x00, 0x00, 0x94, 0x02, 0x00, 0x00, 0x6c, 0x02, 0x00, 0x00,
  0x10, 0x02, 0x00, 0x00, 0xc0, 0x01, 0x00, 0x00, 0x7c, 0x01, 0x00, 0x00,
  0x3c, 0x01, 0x00, 0x00, 0xf8, 0x00, 0x00, 0x00, 0xb8, 0x00, 0x00, 0x00,
  0x90, 0x00, 0x00, 0x00, 0x58, 0x00, 0x00, 0x00, 0x24, 0x00, 0x00, 0x00,
  0x04, 0x00, 0x00, 0x00, 0xc2, 0xfc, 0xff, 0xff, 0x08, 0x00, 0x00, 0x00,
  0x0c, 0x00, 0x00, 0x00, 0x01, 0x00, 0x00, 0x00, 0x1d, 0x00, 0x00, 0x00,
  0x01, 0x00, 0x00, 0x00, 0x1c, 0x00, 0x00, 0x00, 0x26, 0xfd, 0xff, 0xff,
  0x14, 0x00, 0x00, 0x00, 0x00, 0x00, 0x00, 0x09, 0x14, 0x00, 0x00, 0x00,
  0x18, 0x00, 0x00, 0x00, 0x08, 0x00, 0x00, 0x00, 0xb6, 0xfd, 0xff, 0xff,
  0x00, 0x00, 0x80, 0x3f, 0x01, 0x00, 0x00, 0x00, 0x1c, 0x00, 0x00, 0x00,
  0x01, 0x00, 0x00, 0x00, 0x1b, 0x00, 0x00, 0x00, 0x56, 0xfd, 0xff, 0xff,
  0x14, 0x00, 0x00, 0x00, 0x00, 0x00, 0x00, 0x08, 0x10, 0x00, 0x00, 0x00,
  0x14, 0x00, 0x00, 0x00, 0x07, 0x00, 0x00, 0x00, 0x30, 0xea, 0xff, 0xff,
  0x01, 0x00, 0x00, 0x00, 0x1b, 0x00, 0x00, 0x00, 0x03, 0x00, 0x00, 0x00,
  0x1a, 0x00, 0x00, 0x00, 0x0d, 0x00, 0x00, 0x00, 0x0e, 0x00, 0x00, 0x00,
  0x4a, 0xfe, 0xff, 0xff, 0x0c, 0x00, 0x00, 0x00, 0x10, 0x00, 0x00, 0x00,
  0x04, 0x00, 0x00, 0x00, 0x01, 0x00, 0x00, 0x00, 0x1a, 0x00, 0x00, 0x00,
  0x02, 0x00, 0x00, 0x00, 0x19, 0x00, 0x00, 0x00, 0x06, 0x00, 0x00, 0x00,
  0xae, 0xfd, 0xff, 0xff, 0x14, 0x00, 0x00, 0x00, 0x00, 0x00, 0x00, 0x05,
  0x20, 0x00, 0x00, 0x00, 0x24, 0x00, 0x00, 0x00, 0x06, 0x00, 0x00, 0x00,
  0x06, 0xff, 0xff, 0xff, 0x02, 0x00, 0x00, 0x00, 0x02, 0x00, 0x00, 0x00,
  0x02, 0x00, 0x00, 0x00, 0x02, 0x00, 0x00, 0x00, 0x01, 0x00, 0x00, 0x00,
  0x19, 0x00, 0x00, 0x00, 0x01, 0x00, 0x00, 0x00, 0x18, 0x00, 0x00, 0x00,
  0xea, 0xfd, 0xff, 0xff, 0x14, 0x00, 0x00, 0x00, 0x00, 0x00, 0x00, 0x01,
  0x1c, 0x00, 0x00, 0x00, 0x20, 0x00, 0x00, 0x00, 0x05, 0x00, 0x00, 0x00,
  0xf8, 0xfe, 0xff, 0xff, 0x00, 0x00, 0x00, 0x01, 0x01, 0x00, 0x00, 0x00,
  0x01, 0x00, 0x00, 0x00, 0x01, 0x00, 0x00, 0x00, 0x18, 0x00, 0x00, 0x00,
  0x03, 0x00, 0x00, 0x00, 0x17, 0x00, 0x00, 0x00, 0x0b, 0x00, 0x00, 0x00,
  0x0c, 0x00, 0x00, 0x00, 0x2a, 0xfe, 0xff, 0xff, 0x14, 0x00, 0x00, 0x00,
  0x00, 0x00, 0x00, 0x05, 0x20, 0x00, 0x00, 0x00, 0x24, 0x00, 0x00, 0x00,
  0x06, 0x00, 0x00, 0x00, 0x82, 0xff, 0xff, 0xff, 0x02, 0x00, 0x00, 0x00,
  0x02, 0x00, 0x00, 0x00, 0x02, 0x00, 0x00, 0x00, 0x02, 0x00, 0x00, 0x00,
  0x01, 0x00, 0x00, 0x00, 0x17, 0x00, 0x00, 0x00, 0x01, 0x00, 0x00, 0x00,
  0x16, 0x00, 0x00, 0x00, 0x66, 0xfe, 0xff, 0xff, 0x14, 0x00, 0x00, 0x00,
  0x00, 0x00, 0x00, 0x01, 0x1c, 0x00, 0x00, 0x00, 0x20, 0x00, 0x00, 0x00,
  0x05, 0x00, 0x00, 0x00, 0x74, 0xff, 0xff, 0xff, 0x00, 0x00, 0x00, 0x01,
  0x01, 0x00, 0x00, 0x00, 0x01, 0x00, 0x00, 0x00, 0x01, 0x00, 0x00, 0x00,
  0x16, 0x00, 0x00, 0x00, 0x03, 0x00, 0x00, 0x00, 0x15, 0x00, 0x00, 0x00,
  0x09, 0x00, 0x00, 0x00, 0x0a, 0x00, 0x00, 0x00, 0xa6, 0xfe, 0xff, 0xff,
  0x24, 0x00, 0x00, 0x00, 0x00, 0x00, 0x00, 0x05, 0x30, 0x00, 0x00, 0x00,
  0x34, 0x00, 0x00, 0x00, 0x06, 0x00, 0x00, 0x00, 0x00, 0x00, 0x0e, 0x00,
  0x14, 0x00, 0x00, 0x00, 0x10, 0x00, 0x0c, 0x00, 0x08, 0x00, 0x04, 0x00,
  0x0e, 0x00, 0x00, 0x00, 0x02, 0x00, 0x00, 0x00, 0x02, 0x00, 0x00, 0x00,
  0x02, 0x00, 0x00, 0x00, 0x02, 0x00, 0x00, 0x00, 0x01, 0x00, 0x00, 0x00,
  0x15, 0x00, 0x00, 0x00, 0x01, 0x00, 0x00, 0x00, 0x14, 0x00, 0x00, 0x00,
  0xf2, 0xfe, 0xff, 0xff, 0x20, 0x00, 0x00, 0x00, 0x00, 0x00, 0x00, 0x01,
  0x28, 0x00, 0x00, 0x00, 0x2c, 0x00, 0x00, 0x00, 0x05, 0x00, 0x00, 0x00,
  0x0c, 0x00, 0x10, 0x00, 0x00, 0x00, 0x0c, 0x00, 0x08, 0x00, 0x07, 0x00,
  0x0c, 0x00, 0x00, 0x00, 0x00, 0x00, 0x00, 0x01, 0x01, 0x00, 0x00, 0x00,
  0x01, 0x00, 0x00, 0x00, 0x01, 0x00, 0x00, 0x00, 0x14, 0x00, 0x00, 0x00,
  0x03, 0x00, 0x00, 0x00, 0x13, 0x00, 0x00, 0x00, 0x07, 0x00, 0x00, 0x00,
  0x08, 0x00, 0x00, 0x00, 0x00, 0x00, 0x0a, 0x00, 0x10, 0x00, 0x0c, 0x00,
  0x08, 0x00, 0x04, 0x00, 0x0a, 0x00, 0x00, 0x00, 0x0c, 0x00, 0x00, 0x00,
  0x10, 0x00, 0x00, 0x00, 0x04, 0x00, 0x00, 0x00, 0x01, 0x00, 0x00, 0x00,
  0x13, 0x00, 0x00, 0x00, 0x02, 0x00, 0x00, 0x00, 0x0f, 0x00, 0x00, 0x00,
  0x12, 0x00, 0x00, 0x00, 0x6e, 0xff, 0xff, 0xff, 0x1c, 0x00, 0x00, 0x00,
  0x00, 0x00, 0x00, 0x3b, 0x1c, 0x00, 0x00, 0x00, 0x20, 0x00, 0x00, 0x00,
  0x03, 0x00, 0x00, 0x00, 0x00, 0x00, 0x06, 0x00, 0x08, 0x00, 0x04, 0x00,
  0x06, 0x00, 0x00, 0x00, 0x04, 0x00, 0x00, 0x00, 0x01, 0x00, 0x00, 0x00,
  0x12, 0x00, 0x00, 0x00, 0x04, 0x00, 0x00, 0x00, 0x11, 0x00, 0x00, 0x00,
  0x03, 0x00, 0x00, 0x00, 0x04, 0x00, 0x00, 0x00, 0x05, 0x00, 0x00, 0x00,
  0xb2, 0xff, 0xff, 0xff, 0x24, 0x00, 0x00, 0x00, 0x00, 0x00, 0x00, 0x20,
  0x24, 0x00, 0x00, 0x00, 0x28, 0x00, 0x00, 0x00, 0x02, 0x00, 0x00, 0x00,
  0x00, 0x00, 0x0e, 0x00, 0x08, 0x00, 0x00, 0x00, 0x00, 0x00, 0x00, 0x00,
  0x00, 0x00, 0x04, 0x00, 0x0e, 0x00, 0x00, 0x00, 0x01, 0x00, 0x00, 0x00,
  0x01, 0x00, 0x00, 0x00, 0x11, 0x00, 0x00, 0x00, 0x04, 0x00, 0x00, 0x00,
  0x10, 0x00, 0x00, 0x00, 0x01, 0x00, 0x00, 0x00, 0x02, 0x00, 0x00, 0x00,
  0x02, 0x00, 0x00, 0x00, 0x00, 0x00, 0x0e, 0x00, 0x1a, 0x00, 0x14, 0x00,
  0x10, 0x00, 0x0c, 0x00, 0x0b, 0x00, 0x04, 0x00, 0x0e, 0x00, 0x00, 0x00,
  0x1c, 0x00, 0x00, 0x00, 0x00, 0x00, 0x00, 0x37, 0x1c, 0x00, 0x00, 0x00,
  0x20, 0x00, 0x00, 0x00, 0x01, 0x00, 0x00, 0x00, 0x00, 0x00, 0x06, 0x00,
  0x08, 0x00, 0x07, 0x00, 0x06, 0x00, 0x00, 0x00, 0x00, 0x00, 0x00, 0x02,
  0x01, 0x00, 0x00, 0x00, 0x10, 0x00, 0x00, 0x00, 0x01, 0x00, 0x00, 0x00,
  0x0f, 0x00, 0x00, 0x00, 0x00, 0x00, 0x0a, 0x00, 0x0c, 0x00, 0x00, 0x00,
  0x08, 0x00, 0x04, 0x00, 0x0a, 0x00, 0x00, 0x00, 0x08, 0x00, 0x00, 0x00,
  0x0c, 0x00, 0x00, 0x00, 0x01, 0x00, 0x00, 0x00, 0x0f, 0x00, 0x00, 0x00,
  0x01, 0x00, 0x00, 0x00, 0x00, 0x00, 0x00, 0x00, 0x01, 0x00, 0x00, 0x00,
  0x1d, 0x00, 0x00, 0x00, 0x01, 0x00, 0x00, 0x00, 0x00, 0x00, 0x00, 0x00,
  0x1e, 0x00, 0x00, 0x00, 0x0c, 0x13, 0x00, 0x00, 0xa0, 0x12, 0x00, 0x00,
  0x38, 0x12, 0x00, 0x00, 0xec, 0x11, 0x00, 0x00, 0xa0, 0x11, 0x00, 0x00,
  0x54, 0x11, 0x00, 0x00, 0x0c, 0x11, 0x00, 0x00, 0x44, 0x10, 0x00, 0x00,
  0x70, 0x0f, 0x00, 0x00, 0x4c, 0x0e, 0x00, 0x00, 0x18, 0x0d, 0x00, 0x00,
  0x34, 0x0b, 0x00, 0x00, 0x40, 0x09, 0x00, 0x00, 0xd4, 0x08, 0x00, 0x00,
  0x58, 0x08, 0x00, 0x00, 0xec, 0x07, 0x00, 0x00, 0xa4, 0x07, 0x00, 0x00,
  0x58, 0x07, 0x00, 0x00, 0x08, 0x07, 0x00, 0x00, 0x7c, 0x06, 0x00, 0x00,
  0x90, 0x05, 0x00, 0x00, 0xfc, 0x04, 0x00, 0x00, 0x08, 0x04, 0x00, 0x00,
  0x74, 0x03, 0x00, 0x00, 0x80, 0x02, 0x00, 0x00, 0xec, 0x01, 0x00, 0x00,
  0x70, 0x01, 0x00, 0x00, 0xdc, 0x00, 0x00, 0x00, 0x70, 0x00, 0x00, 0x00,
  0x04, 0x00, 0x00, 0x00, 0x80, 0xed, 0xff, 0xff, 0x18, 0x00, 0x00, 0x00,
  0x20, 0x00, 0x00, 0x00, 0x40, 0x00, 0x00, 0x00, 0x1e, 0x00, 0x00, 0x00,
  0x00, 0x00, 0x00, 0x03, 0x44, 0x00, 0x00, 0x00, 0x02, 0x00, 0x00, 0x00,
  0xff, 0xff, 0xff, 0xff, 0x04, 0x00, 0x00, 0x00, 0x6c, 0xed, 0xff, 0xff,
  0x08, 0x00, 0x00, 0x00, 0x14, 0x00, 0x00, 0x00, 0x01, 0x00, 0x00, 0x00,
  0x00, 0x00, 0x00, 0x00, 0x00, 0x00, 0x00, 0x00, 0x00, 0x00, 0x00, 0x00,
  0x01, 0x00, 0x00, 0x00, 0x00, 0x00, 0x80, 0x3b, 0x08, 0x00, 0x00, 0x00,
  0x49, 0x64, 0x65, 0x6e, 0x74, 0x69, 0x74, 0x79, 0x00, 0x00, 0x00, 0x00,
  0x02, 0x00, 0x00, 0x00, 0x01, 0x00, 0x00, 0x00, 0x04, 0x00, 0x00, 0x00,
  0xe8, 0xed, 0xff, 0xff, 0x18, 0x00, 0x00, 0x00, 0x20, 0x00, 0x00, 0x00,
  0x40, 0x00, 0x00, 0x00, 0x1d, 0x00, 0x00, 0x00, 0x00, 0x00, 0x00, 0x09,
  0x44, 0x00, 0x00, 0x00, 0x02, 0x00, 0x00, 0x00, 0xff, 0xff, 0xff, 0xff,
  0x04, 0x00, 0x00, 0x00, 0xd4, 0xed, 0xff, 0xff, 0x08, 0x00, 0x00, 0x00,
  0x14, 0x00, 0x00, 0x00, 0x01, 0x00, 0x00, 0x00, 0x80, 0xff, 0xff, 0xff,
  0xff, 0xff, 0xff, 0xff, 0x00, 0x00, 0x00, 0x00, 0x01, 0x00, 0x00, 0x00,
  0x00, 0x00, 0x80, 0x3b, 0x09, 0x00, 0x00, 0x00, 0x49, 0x64, 0x65, 0x6e,
  0x74, 0x69, 0x74, 0x79, 0x31, 0x00, 0x00, 0x00, 0x02, 0x00, 0x00, 0x00,
  0x01, 0x00, 0x00, 0x00, 0x04, 0x00, 0x00, 0x00, 0x50, 0xee, 0xff, 0xff,
  0x18, 0x00, 0x00, 0x00, 0x20, 0x00, 0x00, 0x00, 0x40, 0x00, 0x00, 0x00,
  0x1c, 0x00, 0x00, 0x00, 0x00, 0x00, 0x00, 0x09, 0x6c, 0x00, 0x00, 0x00,
  0x02, 0x00, 0x00, 0x00, 0xff, 0xff, 0xff, 0xff, 0x04, 0x00, 0x00, 0x00,
  0x3c, 0xee, 0xff, 0xff, 0x08, 0x00, 0x00, 0x00, 0x14, 0x00, 0x00, 0x00,
  0x01, 0x00, 0x00, 0x00, 0x28, 0x00, 0x00, 0x00, 0x00, 0x00, 0x00, 0x00,
  0x00, 0x00, 0x00, 0x00, 0x01, 0x00, 0x00, 0x00, 0x9e, 0xa7, 0x91, 0x3e,
  0x32, 0x00, 0x00, 0x00, 0x73, 0x65, 0x71, 0x75, 0x65, 0x6e, 0x74, 0x69,
  0x61, 0x6c, 0x2f, 0x79, 0x5f, 0x70, 0x72, 0x65, 0x64, 0x2f, 0x4d, 0x61,
  0x74, 0x4d, 0x75, 0x6c, 0x3b, 0x73, 0x65, 0x71, 0x75, 0x65, 0x6e, 0x74,
  0x69, 0x61, 0x6c, 0x2f, 0x79, 0x5f, 0x70, 0x72, 0x65, 0x64, 0x2f, 0x42,
  0x69, 0x61, 0x73, 0x41, 0x64, 0x64, 0x00, 0x00, 0x02, 0x00, 0x00, 0x00,
  0x01, 0x00, 0x00, 0x00, 0x04, 0x00, 0x00, 0x00, 0xe0, 0xee, 0xff, 0xff,
  0x18, 0x00, 0x00, 0x00, 0x20, 0x00, 0x00, 0x00, 0x40, 0x00, 0x00, 0x00,
  0x1b, 0x00, 0x00, 0x00, 0x00, 0x00, 0x00, 0x09, 0x54, 0x00, 0x00, 0x00,
  0x02, 0x00, 0x00, 0x00, 0xff, 0xff, 0xff, 0xff, 0x40, 0x05, 0x00, 0x00,
  0xcc, 0xee, 0xff, 0xff, 0x08, 0x00, 0x00, 0x00, 0x14, 0x00, 0x00, 0x00,
  0x01, 0x00, 0x00, 0x00, 0x80, 0xff, 0xff, 0xff, 0xff, 0xff, 0xff, 0xff,
  0x00, 0x00, 0x00, 0x00, 0x01, 0x00, 0x00, 0x00, 0xd3, 0x72, 0x35, 0x3d,
  0x1a, 0x00, 0x00, 0x00, 0x73, 0x65, 0x71, 0x75, 0x65, 0x6e, 0x74, 0x69,
  0x61, 0x6c, 0x2f, 0x66, 0x6c, 0x61, 0x74, 0x74, 0x65, 0x6e, 0x2f, 0x52,
  0x65, 0x73, 0x68, 0x61, 0x70, 0x65, 0x00, 0x00, 0x02, 0x00, 0x00, 0x00,
  0x01, 0x00, 0x00, 0x00, 0x40, 0x05, 0x00, 0x00, 0x58, 0xef, 0xff, 0xff,
  0x18, 0x00, 0x00, 0x00, 0x28, 0x00, 0x00, 0x00, 0x48, 0x00, 0x00, 0x00,
  0x1a, 0x00, 0x00, 0x00, 0x00, 0x00, 0x00, 0x09, 0x64, 0x00, 0x00, 0x00,
  0x04, 0x00, 0x00, 0x00, 0xff, 0xff, 0xff, 0xff, 0x07, 0x00, 0x00, 0x00,
  0x06, 0x00, 0x00, 0x00, 0x20, 0x00, 0x00, 0x00, 0x4c, 0xef, 0xff, 0xff,
  0x08, 0x00, 0x00, 0x00, 0x14, 0x00, 0x00, 0x00, 0x01, 0x00, 0x00, 0x00,
  0x80, 0xff, 0xff, 0xff, 0xff, 0xff, 0xff, 0xff, 0x00, 0x00, 0x00, 0x00,
  0x01, 0x00, 0x00, 0x00, 0xd3, 0x72, 0x35, 0x3d, 0x22, 0x00, 0x00, 0x00,
  0x73, 0x65, 0x71, 0x75, 0x65, 0x6e, 0x74, 0x69, 0x61, 0x6c, 0x2f, 0x6d,
  0x61, 0x78, 0x5f, 0x70, 0x6f, 0x6f, 0x6c, 0x69, 0x6e, 0x67, 0x32, 0x64,
  0x5f, 0x32, 0x2f, 0x4d, 0x61, 0x78, 0x50, 0x6f, 0x6f, 0x6c, 0x00, 0x00,
  0x04, 0x00, 0x00, 0x00, 0x01, 0x00, 0x00, 0x00, 0x07, 0x00, 0x00, 0x00,
  0x06, 0x00, 0x00, 0x00, 0x20, 0x00, 0x00, 0x00, 0xe8, 0xef, 0xff, 0xff,
  0x18, 0x00, 0x00, 0x00, 0x28, 0x00, 0x00, 0x00, 0x48, 0x00, 0x00, 0x00,
  0x19, 0x00, 0x00, 0x00, 0x00, 0x00, 0x00, 0x09, 0xc4, 0x00, 0x00, 0x00,
  0x04, 0x00, 0x00, 0x00, 0xff, 0xff, 0xff, 0xff, 0x0d, 0x00, 0x00, 0x00,
  0x0b, 0x00, 0x00, 0x00, 0x20, 0x00, 0x00, 0x00, 0xdc, 0xef, 0xff, 0xff,
  0x08, 0x00, 0x00, 0x00, 0x14, 0x00, 0x00, 0x00, 0x01, 0x00, 0x00, 0x00,
  0x80, 0xff, 0xff, 0xff, 0xff, 0xff, 0xff, 0xff, 0x00, 0x00, 0x00, 0x00,
  0x01, 0x00, 0x00, 0x00, 0xd3, 0x72, 0x35, 0x3d, 0x83, 0x00, 0x00, 0x00,
  0x73, 0x65, 0x71, 0x75, 0x65, 0x6e, 0x74, 0x69, 0x61, 0x6c, 0x2f, 0x63,
  0x6f, 0x6e, 0x76, 0x32, 0x64, 0x5f, 0x32, 0x2f, 0x52, 0x65, 0x6c, 0x75,
  0x3b, 0x73, 0x65, 0x71, 0x75, 0x65, 0x6e, 0x74, 0x69, 0x61, 0x6c, 0x2f,
  0x63, 0x6f, 0x6e, 0x76, 0x32, 0x64, 0x5f, 0x32, 0x2f, 0x42, 0x69, 0x61,
  0x73, 0x41, 0x64, 0x64, 0x3b, 0x73, 0x65, 0x71, 0x75, 0x65, 0x6e, 0x74,
  0x69, 0x61, 0x6c, 0x2f, 0x63, 0x6f, 0x6e, 0x76, 0x32, 0x64, 0x5f, 0x32,
  0x2f, 0x43, 0x6f, 0x6e, 0x76, 0x32, 0x44, 0x3b, 0x73, 0x65, 0x71, 0x75,
  0x65, 0x6e, 0x74, 0x69, 0x61, 0x6c, 0x2f, 0x63, 0x6f, 0x6e, 0x76, 0x32,
  0x64, 0x5f, 0x32, 0x2f, 0x42, 0x69, 0x61, 0x73, 0x41, 0x64, 0x64, 0x2f,
  0x52, 0x65, 0x61, 0x64, 0x56, 0x61, 0x72, 0x69, 0x61, 0x62, 0x6c, 0x65,
  0x4f, 0x70, 0x2f, 0x72, 0x65, 0x73, 0x6f, 0x75, 0x72, 0x63, 0x65, 0x00,
  0x04, 0x00, 0x00, 0x00, 0x01, 0x00, 0x00, 0x00, 0x0d, 0x00, 0x00, 0x00,
  0x0b, 0x00, 0x00, 0x00, 0x20, 0x00, 0x00, 0x00, 0xd8, 0xf0, 0xff, 0xff,
  0x18, 0x00, 0x00, 0x00, 0x28, 0x00, 0x00, 0x00, 0x48, 0x00, 0x00, 0x00,
  0x18, 0x00, 0x00, 0x00, 0x00, 0x00, 0x00, 0x09, 0x64, 0x00, 0x00, 0x00,
  0x04, 0x00, 0x00, 0x00, 0xff, 0xff, 0xff, 0xff, 0x0d, 0x00, 0x00, 0x00,
  0x0b, 0x00, 0x00, 0x00, 0x10, 0x00, 0x00, 0x00, 0xcc, 0xf0, 0xff, 0xff,
  0x08, 0x00, 0x00, 0x00, 0x14, 0x00, 0x00, 0x00, 0x01, 0x00, 0x00, 0x00,
  0x80, 0xff, 0xff, 0xff, 0xff, 0xff, 0xff, 0xff, 0x00, 0x00, 0x00, 0x00,
  0x01, 0x00, 0x00, 0x00, 0x59, 0x27, 0x11, 0x3d, 0x22, 0x00, 0x00, 0x00,
  0x73, 0x65, 0x71, 0x75, 0x65, 0x6e, 0x74, 0x69, 0x61, 0x6c, 0x2f, 0x6d,
  0x61, 0x78, 0x5f, 0x70, 0x6f, 0x6f, 0x6c, 0x69, 0x6e, 0x67, 0x32, 0x64,
  0x5f, 0x31, 0x2f, 0x4d, 0x61, 0x78, 0x50, 0x6f, 0x6f, 0x6c, 0x00, 0x00,
  0x04, 0x00, 0x00, 0x00, 0x01, 0x00, 0x00, 0x00, 0x0d, 0x00, 0x00, 0x00,
  0x0b, 0x00, 0x00, 0x00, 0x10, 0x00, 0x00, 0x00, 0x68, 0xf1, 0xff, 0xff,
  0x18, 0x00, 0x00, 0x00, 0x28, 0x00, 0x00, 0x00, 0x48, 0x00, 0x00, 0x00,
  0x17, 0x00, 0x00, 0x00, 0x00, 0x00, 0x00, 0x09, 0xc4, 0x00, 0x00, 0x00,
  0x04, 0x00, 0x00, 0x00, 0xff, 0xff, 0xff, 0xff, 0x19, 0x00, 0x00, 0x00,
  0x15, 0x00, 0x00, 0x00, 0x10, 0x00, 0x00, 0x00, 0x5c, 0xf1, 0xff, 0xff,
  0x08, 0x00, 0x00, 0x00, 0x14, 0x00, 0x00, 0x00, 0x01, 0x00, 0x00, 0x00,
  0x80, 0xff, 0xff, 0xff, 0xff, 0xff, 0xff, 0xff, 0x00, 0x00, 0x00, 0x00,
  0x01, 0x00, 0x00, 0x00, 0x59, 0x27, 0x11, 0x3d, 0x83, 0x00, 0x00, 0x00,
  0x73, 0x65, 0x71, 0x75, 0x65, 0x6e, 0x74, 0x69, 0x61, 0x6c, 0x2f, 0x63,
  0x6f, 0x6e, 0x76, 0x32, 0x64, 0x5f, 0x31, 0x2f, 0x52, 0x65, 0x6c, 0x75,
  0x3b, 0x73, 0x65, 0x71, 0x75, 0x65, 0x6e, 0x74, 0x69, 0x61, 0x6c, 0x2f,
  0x63, 0x6f, 0x6e, 0x76, 0x32, 0x64, 0x5f, 0x31, 0x2f, 0x42, 0x69, 0x61,
  0x73, 0x41, 0x64, 0x64, 0x3b, 0x73, 0x65, 0x71, 0x75, 0x65, 0x6e, 0x74,
  0x69, 0x61, 0x6c, 0x2f, 0x63, 0x6f, 0x6e, 0x76, 0x32, 0x64, 0x5f, 0x31,
  0x2f, 0x43, 0x6f, 0x6e, 0x76, 0x32, 0x44, 0x3b, 0x73, 0x65, 0x71, 0x75,
  0x65, 0x6e, 0x74, 0x69, 0x61, 0x6c, 0x2f, 0x63, 0x6f, 0x6e, 0x76, 0x32,
  0x64, 0x5f, 0x31, 0x2f, 0x42, 0x69, 0x61, 0x73, 0x41, 0x64, 0x64, 0x2f,
  0x52, 0x65, 0x61, 0x64, 0x56, 0x61, 0x72, 0x69, 0x61, 0x62, 0x6c, 0x65,
  0x4f, 0x70, 0x2f, 0x72, 0x65, 0x73, 0x6f, 0x75, 0x72, 0x63, 0x65, 0x00,
  0x04, 0x00, 0x00, 0x00, 0x01, 0x00, 0x00, 0x00, 0x19, 0x00, 0x00, 0x00,
  0x15, 0x00, 0x00, 0x00, 0x10, 0x00, 0x00, 0x00, 0x58, 0xf2, 0xff, 0xff,
  0x18, 0x00, 0x00, 0x00, 0x28, 0x00, 0x00, 0x00, 0x48, 0x00, 0x00, 0x00,
  0x16, 0x00, 0x00, 0x00, 0x00, 0x00, 0x00, 0x09, 0x64, 0x00, 0x00, 0x00,
  0x04, 0x00, 0x00, 0x00, 0xff, 0xff, 0xff, 0xff, 0x19, 0x00, 0x00, 0x00,
  0x15, 0x00, 0x00, 0x00, 0x08, 0x00, 0x00, 0x00, 0x4c, 0xf2, 0xff, 0xff,
  0x08, 0x00, 0x00, 0x00, 0x14, 0x00, 0x00, 0x00, 0x01, 0x00, 0x00, 0x00,
  0x80, 0xff, 0xff, 0xff, 0xff, 0xff, 0xff, 0xff, 0x00, 0x00, 0x00, 0x00,
  0x01, 0x00, 0x00, 0x00, 0x62, 0x1d, 0xf7, 0x3c, 0x20, 0x00, 0x00, 0x00,
  0x73, 0x65, 0x71, 0x75, 0x65, 0x6e, 0x74, 0x69, 0x61, 0x6c, 0x2f, 0x6d,
  0x61, 0x78, 0x5f, 0x70, 0x6f, 0x6f, 0x6c, 0x69, 0x6e, 0x67, 0x32, 0x64,
  0x2f, 0x4d, 0x61, 0x78, 0x50, 0x6f, 0x6f, 0x6c, 0x00, 0x00, 0x00, 0x00,
  0x04, 0x00, 0x00, 0x00, 0x01, 0x00, 0x00, 0x00, 0x19, 0x00, 0x00, 0x00,
  0x15, 0x00, 0x00, 0x00, 0x08, 0x00, 0x00, 0x00, 0xe8, 0xf2, 0xff, 0xff,
  0x18, 0x00, 0x00, 0x00, 0x28, 0x00, 0x00, 0x00, 0x48, 0x00, 0x00, 0x00,
  0x15, 0x00, 0x00, 0x00, 0x00, 0x00, 0x00, 0x09, 0xbc, 0x00, 0x00, 0x00,
  0x04, 0x00, 0x00, 0x00, 0xff, 0xff, 0xff, 0xff, 0x31, 0x00, 0x00, 0x00,
  0x2a, 0x00, 0x00, 0x00, 0x08, 0x00, 0x00, 0x00, 0xdc, 0xf2, 0xff, 0xff,
  0x08, 0x00, 0x00, 0x00, 0x14, 0x00, 0x00, 0x00, 0x01, 0x00, 0x00, 0x00,
  0x80, 0xff, 0xff, 0xff, 0xff, 0xff, 0xff, 0xff, 0x00, 0x00, 0x00, 0x00,
  0x01, 0x00, 0x00, 0x00, 0x62, 0x1d, 0xf7, 0x3c, 0x7b, 0x00, 0x00, 0x00,
  0x73, 0x65, 0x71, 0x75, 0x65, 0x6e, 0x74, 0x69, 0x61, 0x6c, 0x2f, 0x63,
  0x6f, 0x6e, 0x76, 0x32, 0x64, 0x2f, 0x52, 0x65, 0x6c, 0x75, 0x3b, 0x73,
  0x65, 0x71, 0x75, 0x65, 0x6e, 0x74, 0x69, 0x61, 0x6c, 0x2f, 0x63, 0x6f,
  0x6e, 0x76, 0x32, 0x64, 0x2f, 0x42, 0x69, 0x61, 0x73, 0x41, 0x64, 0x64,
  0x3b, 0x73, 0x65, 0x71, 0x75, 0x65, 0x6e, 0x74, 0x69, 0x61, 0x6c, 0x2f,
  0x63, 0x6f, 0x6e, 0x76, 0x32, 0x64, 0x2f, 0x43, 0x6f, 0x6e, 0x76, 0x32,
  0x44, 0x3b, 0x73, 0x65, 0x71, 0x75, 0x65, 0x6e, 0x74, 0x69, 0x61, 0x6c,
  0x2f, 0x63, 0x6f, 0x6e, 0x76, 0x32, 0x64, 0x2f, 0x42, 0x69, 0x61, 0x73,
  0x41, 0x64, 0x64, 0x2f, 0x52, 0x65, 0x61, 0x64, 0x56, 0x61, 0x72, 0x69,
  0x61, 0x62, 0x6c, 0x65, 0x4f, 0x70, 0x2f, 0x72, 0x65, 0x73, 0x6f, 0x75,
  0x72, 0x63, 0x65, 0x00, 0x04, 0x00, 0x00, 0x00, 0x01, 0x00, 0x00, 0x00,
  0x31, 0x00, 0x00, 0x00, 0x2a, 0x00, 0x00, 0x00, 0x08, 0x00, 0x00, 0x00,
  0xd0, 0xf3, 0xff, 0xff, 0x18, 0x00, 0x00, 0x00, 0x28, 0x00, 0x00, 0x00,
  0x48, 0x00, 0x00, 0x00, 0x14, 0x00, 0x00, 0x00, 0x00, 0x00, 0x00, 0x09,
  0x5c, 0x00, 0x00, 0x00, 0x04, 0x00, 0x00, 0x00, 0xff, 0xff, 0xff, 0xff,
  0x31, 0x00, 0x00, 0x00, 0x2a, 0x00, 0x00, 0x00, 0x01, 0x00, 0x00, 0x00,
  0xc4, 0xf3, 0xff, 0xff, 0x08, 0x00, 0x00, 0x00, 0x14, 0x00, 0x00, 0x00,
  0x01, 0x00, 0x00, 0x00, 0x80, 0xff, 0xff, 0xff, 0xff, 0xff, 0xff, 0xff,
  0x00, 0x00, 0x00, 0x00, 0x01, 0x00, 0x00, 0x00, 0x0d, 0x5a, 0x59, 0x3d,
  0x1a, 0x00, 0x00, 0x00, 0x73, 0x65, 0x71, 0x75, 0x65, 0x6e, 0x74, 0x69,
  0x61, 0x6c, 0x2f, 0x72, 0x65, 0x73, 0x68, 0x61, 0x70, 0x65, 0x2f, 0x52,
  0x65, 0x73, 0x68, 0x61, 0x70, 0x65, 0x00, 0x00, 0x04, 0x00, 0x00, 0x00,
  0x01, 0x00, 0x00, 0x00, 0x31, 0x00, 0x00, 0x00, 0x2a, 0x00, 0x00, 0x00,
  0x01, 0x00, 0x00, 0x00, 0xba, 0xf4, 0xff, 0xff, 0x14, 0x00, 0x00, 0x00,
  0x14, 0x00, 0x00, 0x00, 0x13, 0x00, 0x00, 0x00, 0x00, 0x00, 0x00, 0x02,
  0x30, 0x00, 0x00, 0x00, 0xac, 0xf4, 0xff, 0xff, 0x20, 0x00, 0x00, 0x00,
  0x73, 0x65, 0x71, 0x75, 0x65, 0x6e, 0x74, 0x69, 0x61, 0x6c, 0x2f, 0x72,
  0x65, 0x73, 0x68, 0x61, 0x70, 0x65, 0x2f, 0x52, 0x65, 0x73, 0x68, 0x61,
  0x70, 0x65, 0x2f, 0x73, 0x68, 0x61, 0x70, 0x65, 0x00, 0x00, 0x00, 0x00,
  0x01, 0x00, 0x00, 0x00, 0x04, 0x00, 0x00, 0x00, 0x06, 0xf5, 0xff, 0xff,
  0x14, 0x00, 0x00, 0x00, 0x14, 0x00, 0x00, 0x00, 0x12, 0x00, 0x00, 0x00,
  0x00, 0x00, 0x00, 0x02, 0x30, 0x00, 0x00, 0x00, 0xf8, 0xf4, 0xff, 0xff,
  0x20, 0x00, 0x00, 0x00, 0x73, 0x65, 0x71, 0x75, 0x65, 0x6e, 0x74, 0x69,
  0x61, 0x6c, 0x2f, 0x72, 0x65, 0x73, 0x68, 0x61, 0x70, 0x65, 0x2f, 0x73,
  0x74, 0x72, 0x69, 0x64, 0x65, 0x64, 0x5f, 0x73, 0x6c, 0x69, 0x63, 0x65,
  0x00, 0x00, 0x00, 0x00, 0x00, 0x00, 0x00, 0x00, 0x4e, 0xf5, 0xff, 0xff,
  0x14, 0x00, 0x00, 0x00, 0x14, 0x00, 0x00, 0x00, 0x11, 0x00, 0x00, 0x00,
  0x00, 0x00, 0x00, 0x02, 0x28, 0x00, 0x00, 0x00, 0x40, 0xf5, 0xff, 0xff,
  0x18, 0x00, 0x00, 0x00, 0x73, 0x65, 0x71, 0x75, 0x65, 0x6e, 0x74, 0x69,
  0x61, 0x6c, 0x2f, 0x72, 0x65, 0x73, 0x68, 0x61, 0x70, 0x65, 0x2f, 0x53,
  0x68, 0x61, 0x70, 0x65, 0x00, 0x00, 0x00, 0x00, 0x01, 0x00, 0x00, 0x00,
  0x02, 0x00, 0x00, 0x00, 0x30, 0xf5, 0xff, 0xff, 0x18, 0x00, 0x00, 0x00,
  0x20, 0x00, 0x00, 0x00, 0x3c, 0x00, 0x00, 0x00, 0x10, 0x00, 0x00, 0x00,
  0x00, 0x00, 0x00, 0x09, 0x44, 0x00, 0x00, 0x00, 0x02, 0x00, 0x00, 0x00,
  0xff, 0xff, 0xff, 0xff, 0x0a, 0x08, 0x00, 0x00, 0x1c, 0xf5, 0xff, 0xff,
  0x08, 0x00, 0x00, 0x00, 0x10, 0x00, 0x00, 0x00, 0x01, 0x00, 0x00, 0x00,
  0x80, 0xff, 0xff, 0xff, 0xff, 0xff, 0xff, 0xff, 0x01, 0x00, 0x00, 0x00,
  0x0d, 0x5a, 0x59, 0x3d, 0x0c, 0x00, 0x00, 0x00, 0x74, 0x66, 0x6c, 0x2e,
  0x71, 0x75, 0x61, 0x6e, 0x74, 0x69, 0x7a, 0x65, 0x00, 0x00, 0x00, 0x00,
  0x02, 0x00, 0x00, 0x00, 0x01, 0x00, 0x00, 0x00, 0x0a, 0x08, 0x00, 0x00,
  0xfa, 0xf5, 0xff, 0xff, 0x14, 0x00, 0x00, 0x00, 0x30, 0x00, 0x00, 0x00,
  0x0f, 0x00, 0x00, 0x00, 0x00, 0x00, 0x00, 0x02, 0x5c, 0x00, 0x00, 0x00,
  0x74, 0xf5, 0xff, 0xff, 0x08, 0x00, 0x00, 0x00, 0x10, 0x00, 0x00, 0x00,
  0x01, 0x00, 0x00, 0x00, 0x00, 0x00, 0x00, 0x00, 0x00, 0x00, 0x00, 0x00,
  0x01, 0x00, 0x00, 0x00, 0x78, 0x04, 0x6e, 0x39, 0x31, 0x00, 0x00, 0x00,
  0x73, 0x65, 0x71, 0x75, 0x65, 0x6e, 0x74, 0x69, 0x61, 0x6c, 0x2f, 0x79,
  0x5f, 0x70, 0x72, 0x65, 0x64, 0x2f, 0x42, 0x69, 0x61, 0x73, 0x41, 0x64,
  0x64, 0x2f, 0x52, 0x65, 0x61, 0x64, 0x56, 0x61, 0x72, 0x69, 0x61, 0x62,
  0x6c, 0x65, 0x4f, 0x70, 0x2f, 0x72, 0x65, 0x73, 0x6f, 0x75, 0x72, 0x63,
  0x65, 0x00, 0x00, 0x00, 0x01, 0x00, 0x00, 0x00, 0x04, 0x00, 0x00, 0x00,
  0x72, 0xf6, 0xff, 0xff, 0x14, 0x00, 0x00, 0x00, 0x34, 0x00, 0x00, 0x00,
  0x0e, 0x00, 0x00, 0x00, 0x00, 0x00, 0x00, 0x09, 0x48, 0x00, 0x00, 0x00,
  0xec, 0xf5, 0xff, 0xff, 0x08, 0x00, 0x00, 0x00, 0x14, 0x00, 0x00, 0x00,
  0x01, 0x00, 0x00, 0x00, 0x00, 0x00, 0x00, 0x00, 0x00, 0x00, 0x00, 0x00,
  0x00, 0x00, 0x00, 0x00, 0x01, 0x00, 0x00, 0x00, 0xd9, 0xe7, 0xa7, 0x3b,
  0x18, 0x00, 0x00, 0x00, 0x73, 0x65, 0x71, 0x75, 0x65, 0x6e, 0x74, 0x69,
  0x61, 0x6c, 0x2f, 0x79, 0x5f, 0x70, 0x72, 0x65, 0x64, 0x2f, 0x4d, 0x61,
  0x74, 0x4d, 0x75, 0x6c, 0x00, 0x00, 0x00, 0x00, 0x02, 0x00, 0x00, 0x00,
  0x04, 0x00, 0x00, 0x00, 0x40, 0x05, 0x00, 0x00, 0xda, 0xf6, 0xff, 0xff,
  0x14, 0x00, 0x00, 0x00, 0xa8, 0x01, 0x00, 0x00, 0x0d, 0x00, 0x00, 0x00,
  0x00, 0x00, 0x00, 0x02, 0xd4, 0x01, 0x00, 0x00, 0x54, 0xf6, 0xff, 0xff,
  0x08, 0x00, 0x00, 0x00, 0x0c, 0x01, 0x00, 0x00, 0x20, 0x00, 0x00, 0x00,
  0x00, 0x00, 0x00, 0x00, 0x00, 0x00, 0x00, 0x00, 0x00, 0x00, 0x00, 0x00,
  0x00, 0x00, 0x00, 0x00, 0x00, 0x00, 0x00, 0x00, 0x00, 0x00, 0x00, 0x00,
  0x00, 0x00, 0x00, 0x00, 0x00, 0x00, 0x00, 0x00, 0x00, 0x00, 0x00, 0x00,
  0x00, 0x00, 0x00, 0x00, 0x00, 0x00, 0x00, 0x00, 0x00, 0x00, 0x00, 0x00,
  0x00, 0x00, 0x00, 0x00, 0x00, 0x00, 0x00, 0x00, 0x00, 0x00, 0x00, 0x00,
  0x00, 0x00, 0x00, 0x00, 0x00, 0x00, 0x00, 0x00, 0x00, 0x00, 0x00, 0x00,
  0x00, 0x00, 0x00, 0x00, 0x00, 0x00, 0x00, 0x00, 0x00, 0x00, 0x00, 0x00,
  0x00, 0x00, 0x00, 0x00, 0x00, 0x00, 0x00, 0x00, 0x00, 0x00, 0x00, 0x00,
  0x00, 0x00, 0x00, 0x00, 0x00, 0x00, 0x00, 0x00, 0x00, 0x00, 0x00, 0x00,
  0x00, 0x00, 0x00, 0x00, 0x00, 0x00, 0x00, 0x00, 0x00, 0x00, 0x00, 0x00,
  0x00, 0x00, 0x00, 0x00, 0x00, 0x00, 0x00, 0x00, 0x00, 0x00, 0x00, 0x00,
  0x00, 0x00, 0x00, 0x00, 0x00, 0x00, 0x00, 0x00, 0x00, 0x00, 0x00, 0x00,
  0x00, 0x00, 0x00, 0x00, 0x00, 0x00, 0x00, 0x00, 0x00, 0x00, 0x00, 0x00,
  0x00, 0x00, 0x00, 0x00, 0x00, 0x00, 0x00, 0x00, 0x00, 0x00, 0x00, 0x00,
  0x00, 0x00, 0x00, 0x00, 0x00, 0x00, 0x00, 0x00, 0x00, 0x00, 0x00, 0x00,
  0x00, 0x00, 0x00, 0x00, 0x00, 0x00, 0x00, 0x00, 0x00, 0x00, 0x00, 0x00,
  0x00, 0x00, 0x00, 0x00, 0x00, 0x00, 0x00, 0x00, 0x00, 0x00, 0x00, 0x00,
  0x00, 0x00, 0x00, 0x00, 0x00, 0x00, 0x00, 0x00, 0x00, 0x00, 0x00, 0x00,
  0x00, 0x00, 0x00, 0x00, 0x00, 0x00, 0x00, 0x00, 0x00, 0x00, 0x00, 0x00,
  0x00, 0x00, 0x00, 0x00, 0x00, 0x00, 0x00, 0x00, 0x00, 0x00, 0x00, 0x00,
  0x00, 0x00, 0x00, 0x00, 0x00, 0x00, 0x00, 0x00, 0x00, 0x00, 0x00, 0x00,
  0x00, 0x00, 0x00, 0x00, 0x00, 0x00, 0x00, 0x00, 0x20, 0x00, 0x00, 0x00,
  0xcf, 0xc5, 0xa3, 0x38, 0xca, 0x35, 0x83, 0x38, 0x9d, 0x1c, 0xa7, 0x38,
  0x07, 0x9f, 0xbc, 0x38, 0x7f, 0x85, 0xa0, 0x38, 0xb3, 0x58, 0x92, 0x38,
  0xdf, 0xbb, 0x96, 0x38, 0xd2, 0xcd, 0x8a, 0x38, 0xa7, 0xcf, 0x8c, 0x38,
  0x9b, 0xaf, 0x8d, 0x38, 0x1a, 0x55, 0xbd, 0x38, 0x2f, 0xcb, 0xab, 0x38,
  0x15, 0xdb, 0x9c, 0x38, 0xd7, 0x9f, 0x96, 0x38, 0xee, 0x54, 0x95, 0x38,
  0xd8, 0x22, 0x9d, 0x38, 0x0c, 0x9a, 0xa4, 0x38, 0xc2, 0x37, 0x06, 0x39,
  0x7c, 0x53, 0xa4, 0x38, 0x7a, 0xb9, 0xf0, 0x38, 0xef, 0xcf, 0x8a, 0x38,
  0x7c, 0x41, 0x88, 0x38, 0x95, 0x5b, 0x52, 0x38, 0x55, 0x82, 0xc9, 0x38,
  0x86, 0x6d, 0x6c, 0x38, 0x0e, 0x08, 0x83, 0x38, 0x49, 0x49, 0x9c, 0x38,
  0xa4, 0xe4, 0xa9, 0x38, 0x05, 0x8d, 0x84, 0x38, 0x3a, 0x03, 0x6c, 0x38,
  0x7b, 0x34, 0xa7, 0x38, 0x4f, 0xc3, 0xa7, 0x38, 0x33, 0x00, 0x00, 0x00,
  0x73, 0x65, 0x71, 0x75, 0x65, 0x6e, 0x74, 0x69, 0x61, 0x6c, 0x2f, 0x63,
  0x6f, 0x6e, 0x76, 0x32, 0x64, 0x5f, 0x32, 0x2f, 0x42, 0x69, 0x61, 0x73,
  0x41, 0x64, 0x64, 0x2f, 0x52, 0x65, 0x61, 0x64, 0x56, 0x61, 0x72, 0x69,
  0x61, 0x62, 0x6c, 0x65, 0x4f, 0x70, 0x2f, 0x72, 0x65, 0x73, 0x6f, 0x75,
  0x72, 0x63, 0x65, 0x00, 0x01, 0x00, 0x00, 0x00, 0x20, 0x00, 0x00, 0x00,
  0xca, 0xf8, 0xff, 0xff, 0x14, 0x00, 0x00, 0x00, 0xa4, 0x01, 0x00, 0x00,
  0x0c, 0x00, 0x00, 0x00, 0x00, 0x00, 0x00, 0x09, 0xb8, 0x01, 0x00, 0x00,
  0x44, 0xf8, 0xff, 0xff, 0x08, 0x00, 0x00, 0x00, 0x08, 0x01, 0x00, 0x00,
  0x20, 0x00, 0x00, 0x00, 0x00, 0x00, 0x00, 0x00, 0x00, 0x00, 0x00, 0x00,
  0x00, 0x00, 0x00, 0x00, 0x00, 0x00, 0x00, 0x00, 0x00, 0x00, 0x00, 0x00,
  0x00, 0x00, 0x00, 0x00, 0x00, 0x00, 0x00, 0x00, 0x00, 0x00, 0x00, 0x00,
  0x00, 0x00, 0x00, 0x00, 0x00, 0x00, 0x00, 0x00, 0x00, 0x00, 0x00, 0x00,
  0x00, 0x00, 0x00, 0x00, 0x00, 0x00, 0x00, 0x00, 0x00, 0x00, 0x00, 0x00,
  0x00, 0x00, 0x00, 0x00, 0x00, 0x00, 0x00, 0x00, 0x00, 0x00, 0x00, 0x00,
  0x00, 0x00, 0x00, 0x00, 0x00, 0x00, 0x00, 0x00, 0x00, 0x00, 0x00, 0x00,
  0x00, 0x00, 0x00, 0x00, 0x00, 0x00, 0x00, 0x00, 0x00, 0x00, 0x00, 0x00,
  0x00, 0x00, 0x00, 0x00, 0x00, 0x00, 0x00, 0x00, 0x00, 0x00, 0x00, 0x00,
  0x00, 0x00, 0x00, 0x00, 0x00, 0x00, 0x00, 0x00, 0x00, 0x00, 0x00, 0x00,
  0x00, 0x00, 0x00, 0x00, 0x00, 0x00, 0x00, 0x00, 0x00, 0x00, 0x00, 0x00,
  0x00, 0x00, 0x00, 0x00, 0x00, 0x00, 0x00, 0x00, 0x00, 0x00, 0x00, 0x00,
  0x00, 0x00, 0x00, 0x00, 0x00, 0x00, 0x00, 0x00, 0x00, 0x00, 0x00, 0x00,
  0x00, 0x00, 0x00, 0x00, 0x00, 0x00, 0x00, 0x00, 0x00, 0x00, 0x00, 0x00,
  0x00, 0x00, 0x00, 0x00, 0x00, 0x00, 0x00, 0x00, 0x00, 0x00, 0x00, 0x00,
  0x00, 0x00, 0x00, 0x00, 0x00, 0x00, 0x00, 0x00, 0x00, 0x00, 0x00, 0x00,
  0x00, 0x00, 0x00, 0x00, 0x00, 0x00, 0x00, 0x00, 0x00, 0x00, 0x00, 0x00,
  0x00, 0x00, 0x00, 0x00, 0x00, 0x00, 0x00, 0x00, 0x00, 0x00, 0x00, 0x00,
  0x00, 0x00, 0x00, 0x00, 0x00, 0x00, 0x00, 0x00, 0x00, 0x00, 0x00, 0x00,
